e </w>
n </w>
e r
s </w>
t </w>
e n</w>
c h
t h
d </w>
i n
, </w>
e n
er </w>
u n
a n
. </w>
t i
o r
a l
th e</w>
a r
e i
d i
e s
g </w>
y </w>
o n</w>
o n
e l
e s</w>
u r
o </w>
i s
m </w>
f </w>
i ch
i n</w>
s t
d er</w>
a u
r e
di e</w>
w i
a </w>
r o
an d</w>
o f</w>
a t
e in
un d</w>
t o</w>
i t
r </w>
e d</w>
i s</w>
a s</w>
o m
d en</w>
l i
in g</w>
s ch
a ti
s i
l </w>
a t</w>
a n</w>
a s
ich </w>
p o
f or
e t
un g</w>
ch </w>
a b
z u
o u
a m
al </w>
g e
d e
g en</w>
t en</w>
o p
o l
i t</w>
v er
r i
t e</w>
r a
- </w>
t er
en t</w>
u s
en t
l e</w>
e c
e h
e m
d er
f ü
p ro
v e</w>
i l
ur </w>
po s
k </w>
a c
g e</w>
zu </w>
th at</w>
h r
e g
n o
; </w>
w h
l y</w>
d e</w>
i c
for </w>
ati on</w>
s p
q u
v on</w>
o t
om m
th </w>
r es
f f
is t</w>
a pos
& apos
b e
d as</w>
l o
l e
fü r</w>
ch en</w>
c on
w er
ein e</w>
or </w>
ar e</w>
ti on</w>
u l
t s</w>
el </w>
s e</w>
l ich
ur op
v i
s u
n e
d es</w>
ar </w>
m a
ei n</w>
m it</w>
au f</w>
di es
b e</w>
i e</w>
S t
h a
B -</w>
th is</w>
b er
ich t</w>
e x
ei t</w>
w </w>
V er
e m</w>
wi th</w>
i g
el l
w e</w>
i m
E urop
ati on
c e</w>
u t
g en
b er</w>
i m</w>
d a
c o
R B-</w>
o ur</w>
g es
I </w>
wi r</w>
s o</w>
un gen</w>
s h
t er</w>
d u
b ei
c i
s t</w>
r ei
a g
w ei
i r
a d
&apos ;
r u
e t</w>
s er
0 </w>
an d
de m</w>
l ich</w>
p or
e d
ti on
a f
n en</w>
I n
p l
a h
i er
wi r
t a
s en</w>
S ie</w>
as s</w>
l d</w>
n icht</w>
w or
e b
s o
it y</w>
u m</w>
al l</w>
ä n
c k
m o
ch e</w>
U n
u m
wer den</w>
b es
si on</w>
c om
l l</w>
no t</w>
t r
s in
un g
a p
ou </w>
b y</w>
is chen</w>
d ass</w>
al s</w>
A n
y ou</w>
ha ve</w>
: </w>
at e</w>
s ich</w>
g h
er e</w>
p ar
b u
k e</w>
au ch</w>
qu ot
al l
ti m
& quot
&quot ;</w>
p er
l a
g i
ou ld</w>
p </w>
wi ll</w>
z </w>
w en
a ch
t ra
omm is
w as</w>
e ch
m ent</w>
f in
d en
wh ich</w>
- R
z i
au s
- L
ung s
e v
f ro
m en</w>
fro m</w>
g r
S ch
i on</w>
wi e</w>
h ab
P ro
a ch</w>
sin d</w>
et z
in g
P ar
er s</w>
t s
l ei
h o
t o
2 0
wir d</w>
a hr
ent s</w>
ein er</w>
ü ber</w>
ol l
th er</w>
ein en</w>
c an</w>
s e
h as</w>
sch af
&apos ;</w>
ö n
ti c
E n
l u
au s</w>
it t
&apos; s</w>
ur e</w>
on e</w>
es t
( </w>
ge b
ter n
li c
-L RB-</w>
) </w>
-R RB-</w>
d ur
ü r
ab le</w>
h al
ou t</w>
d o
ommis sion</w>
e an</w>
s a
m an
es s</w>
t en
A r
un d
B er
an t</w>
g an
o der</w>
v or
e u
m e
al so</w>
r ä
hab en</w>
for m
u s</w>
o b
ä r
eh r</w>
bei </w>
an n</w>
Europ ean</w>
H er
t u
re c
ß </w>
w el
d ent</w>
E r
g er
e k
a m</w>
e p
s el
lich en</w>
al ly</w>
us t</w>
A us
a k
au f
d s</w>
k ön
h at</w>
o o
s en
r an
b et
t z
m ö
e f
m or
o h
20 0
it s</w>
si e</w>
d ar
p e
z ur</w>
b i
m en
? </w>
st en</w>
m in
f i
e y</w>
dies e</w>
un ser
ti g
at ed</w>
ar k
t ed</w>
A u
po li
l in
g u
` </w>
st ell
t ri
en d</w>
g ro
w e
is che</w>
bu t</w>
w a
w ar
g el
tion s</w>
s ti
y our</w>
der n</w>
r ü
is h
Un ion</w>
! </w>
sch en</w>
ein em</w>
du c
ic </w>
co un
por t</w>
w ur
ch t</w>
at es</w>
ation s</w>
5 </w>
er n</w>
y st
t ung</w>
st a
d es
m e</w>
t ur
p res
h e</w>
o ff
por t
st r
k en</w>
at en</w>
kön nen</w>
n ach</w>
E U
i hr
f t</w>
lich e</w>
h i
E in
an der
2 </w>
ti ve</w>
b r
dur ch</w>
f ol
z ei
k eit</w>
m er</w>
s am
mor e</w>
wen n</w>
1 9
V or
ig h
ge h
ot el</w>
a ge</w>
b o
e ar
ver y</w>
v o
es s
am ent</w>
A b
d ing</w>
w ould</w>
as t</w>
el y</w>
th ere</w>
in c
s it
ar y</w>
th ei
1 </w>
zu m</w>
u p</w>
fü hr
ö r
thei r</w>
c omm
p ri
k ing</w>
M a
es t</w>
ti es</w>
in ter
com p
as s
an n
k omm
v er</w>
er t</w>
i </w>
si on
g t</w>
` `</w>
S p
l an
s sen</w>
v or</w>
i f</w>
n ur</w>
un s</w>
ne u
Europ ä
s ol
be en</w>
es e</w>
li e
eh en</w>
r is
con t
h er
En t
i e
&apos; &apos;</w>
ü ber
v ic
m an</w>
ou s</w>
G es
ti v
h in
em ber</w>
s on
dies er</w>
ec t</w>
o ther</w>
an ce</w>
0 0</w>
u b
P res
t ei
r el
en s
k l
ü n
sh ould</w>
th ey</w>
k ann</w>
p p
it ä
re g
er n
M r</w>
t et</w>
as e</w>
M it
o g
k t</w>
ch te</w>
w ä
er i
d o</w>
z w
K on
am p
f ac
ab er</w>
b </w>
un ter
h eit</w>
t or
ech n
l en</w>
om e</w>
3 </w>
rä si
w n</w>
no ch</w>
B e
er en</w>
s ich
b t</w>
Pres i
s ec
ar i
ge m
schaf t</w>
el t</w>
R eg
l eg
ac c
C ommission</w>
di s
p f
gh t</w>
b en</w>
t re
a d</w>
di es</w>
or d
k on
en s</w>
4 </w>
t ing</w>
au </w>
C o
m ust</w>
st ru
an y</w>
p h
ei ten</w>
th ese</w>
r it
t w
us s</w>
p re
da ß</w>
K ommission</w>
n ah
m ü
g n
ti g</w>
al i
x </w>
n e</w>
b il
ation al</w>
ges ch
no w</w>
l ä
b le</w>
m ark
b ec
en ce</w>
i el
J ahr
ne w</w>
al le</w>
8 </w>
on ly</w>
s yst
f en</w>
f ir
v el
m u
tim e</w>
EU </w>
li ke</w>
wur de</w>
S </w>
g er</w>
al is
f re
k s</w>
l ung</w>
m on
gr am
al e</w>
st e</w>
an t
F or
P räsi
da y</w>
ut z
s ein</w>
a v
en d
wi ck
l em
6 </w>
poli ti
ti gen</w>
en den</w>
Her r</w>
g o
al en</w>
i h
s oll
ä l
c </w>
t n
s ehr</w>
G r
eh r
pro duc
eh men</w>
ab out</w>
tr an
Presi dent</w>
mü ssen</w>
7 </w>
a i
wor k</w>
im mer</w>
c k</w>
wh at</w>
F r
ü tz
ar d</w>
in tern
c es</w>
ing s</w>
c re
ec i
F ra
gh </w>
9 </w>
Mit g
A l
j e
b eg
tim m
in n
ci al</w>
ein es</w>
or t</w>
ent r
st at
f e
Par l
s etz
de t</w>
st ri
m ents</w>
b el
th er
y s</w>
b en
f er
sch e</w>
wei ter
res p
ati ve</w>
Au f
is ch
/ </w>
su p
d ung</w>
m ehr</w>
ber ei
m itt
H otel</w>
in e</w>
con c
em ent</w>
P o
wi th
D i
th o
v is
l and</w>
et en</w>
t ro
man y</w>
wa y</w>
dies em</w>
I h
M en
wh en</w>
wh o</w>
ges t
au se</w>
ier ung</w>
vel op
for e</w>
de velop
f ahr
d ed</w>
m i
le m</w>
o ur
w ar</w>
on der
vi el
w s</w>
n o</w>
h e
d a</w>
I hr
ac e</w>
e ff
on g</w>
itä t</w>
an s</w>
komm en</w>
A </w>
mö g
mo st</w>
U m
dies es</w>
b eh
op le</w>
im port
z wei
Europä ischen</w>
a il
ü ck
ich t
d am
li ament</w>
B es
de ut
el le</w>
l as
v es</w>
g re
r in
m y</w>
su b
h ei
h er</w>
ß en</w>
su ch</w>
sti tu
in form
% </w>
Europ e</w>
on om
Par liament</w>
b is</w>
or i
hi er</w>
m er
g lei
un der
re ch
ei </w>
a ff
Mitg li
ation en</w>
op er
pe ople</w>
c y</w>
un ter</w>
w ich
Z u
pro c
ne t</w>
ar e
po si
e urop
z en</w>
o f
mö chte</w>
en en</w>
eh t</w>
in to</w>
us e</w>
ol og
f u
on s</w>
l au
ti ge</w>
t y</w>
ier t</w>
h and
ish </w>
sch i
e -
en de</w>
R ech
ihr e</w>
v ol
ev er</w>
at ing</w>
ar bei
ell en</w>
g et
etz t</w>
St ates</w>
unser e</w>
tri es</w>
ro u
s ome</w>
it e</w>
m is
re port</w>
ser vic
di ff
at eg
vi e
en n
et e</w>
@ </w>
a in
h igh
oo d</w>
M ember</w>
vo m</w>
coun tries</w>
h el
wer e</w>
st ütz
d el
h is</w>
si ble</w>
di g
r on
sch lie
Un ter
u p
ier en</w>
l ar
pro b
sp eci
europ ä
C h
& #
v ing</w>
bes t
v ed</w>
gi bt</w>
ge w
st än
Mitgli ed
a st
Co un
f e</w>
f o
v en
b ar
er ung</w>
th an</w>
stell en</w>
ec onom
en g
pro vi
fir st</w>
lo c
ne ed</w>
qu i
t echn
Präsi dent</w>
m at
geb en</w>
h ere</w>
an k</w>
sch </w>
bes onder
ci l</w>
un k
tion en</w>
s er</w>
R e
pro pos
c le
er g
w er</w>
e e</w>
po in
w oh
ä ch
tic al</w>
@ /
@/ @</w>
hal ten</w>
In ter
el n</w>
in s
Coun cil</w>
G er
inc lu
zw ischen</w>
m s</w>
ap p
Ü ber
so wie</w>
ta ke</w>
o m</w>
wel l</w>
ag re
Z us
l at
import ant</w>
ch an
in u
ver n
am e</w>
m p
n at
ma ke</w>
c ri
sp e
di rec
ge t</w>
bec ause</w>
1 0</w>
ä h
for der
em p
de c
b eit</w>
hal b</w>
th em</w>
we en</w>
for m</w>
a y
eg t</w>
bet ween</w>
z e</w>
Ent wick
ur es</w>
Mitglied sta
m il
el s</w>
un den</w>
co ur
v en</w>
wä hr
b ein
r ati
syst em</w>
C omm
du k
b in
ec tion</w>
O r
al ity</w>
t schaf
f ic
ac k
o ver</w>
st and
g ab
c c
un i
m uss</w>
i li
E </w>
B ei
s k
t or</w>
Ar bei
ab il
h eu
st ar
o k
fin an
Ber icht</w>
wh ere</w>
l l
f ra
th ing</w>
schlie ß
sam e</w>
ic al</w>
p ub
C on
ta in
ge gen</w>
w ür
dam it</w>
ab l
eb en</w>
u t</w>
f ri
Parl ament</w>
r ich
P </w>
n ach
per i
c ul
ex c
j ust</w>
i ge</w>
ev en</w>
k eine</w>
R </w>
el l</w>
H au
i es</w>
n ung</w>
b ar</w>
i en</w>
re as
ear s</w>
ac k</w>
M e
z ah
i de
en ti
lic y</w>
Ih nen</w>
ö ff
c ar
d ann</w>
inform ation</w>
t ure</w>
Mitgliedsta aten</w>
C </w>
us s
ah r</w>
19 9
tho se</w>
b as
pro gram
L i
sup port</w>
ma de</w>
th rou
re gi
ß e</w>
Ber ei
Q u
i el</w>
ä u
schi ed
tr y</w>
com e</w>
fin den</w>
p en
z eu
or der</w>
a in</w>
af ter</w>
y p
il l
lic </w>
d r
or gan
R es
O </w>
f all
i d</w>
is su
y ears</w>
y e
D </w>
T </w>
ander en</w>
et s</w>
wir k
er k
ä tz
Ges ch
Pro b
ho w
tw o</w>
&# 9
l än
am men
resp on
f l
T h
h otel</w>
wei se</w>
G e
L än
re ad
Europ a</w>
f ul
wi e
or s</w>
ho w</w>
me di
n um
how ever</w>
Zus ammen
In form
f t
S er
lich keit</w>
S o
f ur
u ation</w>
S B-</w>
in di
k eiten</w>
sh i
g ung</w>
P er
po licy</w>
gh ts</w>
ö s
bein g</w>
tic </w>
ul ar</w>
Vor sch
ap pro
M o
ri ght</w>
M on
tra g</w>
om p
dies en</w>
wor ld</w>
en e</w>
sch ei
qu es
w is
c u
g ra
s at
un ity</w>
o s</w>
par tic
o wn</w>
t es</w>
o ch</w>
ha d</w>
j ec
a ir
r en
ther e
s c
W ir
j ed
ß er
c ur
nah men</w>
ic e</w>
i ti
pro t
in t
is t
w al
gem ein
lo w
tion al</w>
si ve</w>
ic i
ma y</w>
heu te</w>
k o
m al</w>
de mo
lo b
l t</w>
wur den</w>
an g</w>
th en</w>
K o
there fore</w>
diff er
ent ly</w>
em s</w>
M ar
l etz
h um
Fr au</w>
j o
c er
se e</w>
d at
ie ve</w>
a si
ge ment</w>
stru c
D e
s eine</w>
M in
ta in</w>
ter n</w>
w är
it ed</w>
lin e</w>
Pro duk
lo w</w>
pos sible</w>
ä f
y ing</w>
unser er</w>
sit e</w>
B ür
ä m
n u
gen er
in st
a y</w>
pl ace</w>
li m
jed och</w>
in v
T ei
un kt</w>
er rei
an ti
et t
c lo
las sen</w>
us ed</w>
woh l</w>
la ge</w>
ou s
u tion</w>
M itt
vie w</w>
s ei
E x
an z
hab e</w>
Un tern
st er</w>
ye ar</w>
sel b
G eb
St a
re d</w>
s m
Her r
at er</w>
ff en</w>
ar ly</w>
i gen</w>
s om
U S
N </w>
s or
f rei
j ect</w>
den ti
le gen</w>
ac t</w>
f as
ter s</w>
T a
zei ch
Z eit</w>
Europä ische</w>
F in
d an
s ur
lo o
throu gh</w>
bes ch
j ek
i l</w>
d et
is se</w>
G ro
v el</w>
son dern</w>
B et
mark et</w>
par t</w>
ent al</w>
neu e</w>
tr ä
l er</w>
L </w>
n er</w>
h ol
are a</w>
fu l</w>
poli tical</w>
econom ic</w>
lic k</w>
ou gh</w>
n ec
t e
ch ten</w>
ge gen
E ur
ob </w>
ag es</w>
h </w>
gest ell
p le
ich er
i a</w>
au en</w>
i z
res s</w>
h ar
us in
s s
am en</w>
g ood</w>
berei ts</w>
do es</w>
g ent
S yst
ommis sion
B il
ein f
br au
in du
res ul
Men schen</w>
ch ar
soll te</w>
bi et
bo th</w>
st and</w>
un der</w>
om s</w>
h is
ch er</w>
with in</w>
W ei
p ra
ex p
oh ne</w>
G em
b ur
Ä n
igh t</w>
op </w>
B u
M ark
A k
de b
t lichen</w>
h ö
g es</w>
on en</w>
St r
develop ment</w>
den en</w>
europä ischen</w>
ei gen
unter stütz
geh en</w>
et y</w>
sch n
bes ser
c or
z ur
k un
c ould</w>
Än der
ri ghts</w>
v al
2 0</w>
J ahr</w>
w ant</w>
ti k
tran s
ain st</w>
ß nahmen</w>
ou se</w>
ab </w>
geh t</w>
ig n
sp iel
p s</w>
ag ainst</w>
tran sp
t lich</w>
R o
m ich</w>
soll ten</w>
sh o
W eb
viel e</w>
read y</w>
p er</w>
an c
go vern
st ehen</w>
Pro gram
i le</w>
N ach
t ly</w>
ö l
ander e</w>
Ihr e</w>
omm en</w>
f am
to day</w>
abil ity</w>
S icher
0 00</w>
da zu</w>
si gn
Gr und
p rin
fahr en</w>
em ber
ihr er</w>
v oll
M il
intern ational</w>
w in
führ t</w>
en th
neu en</w>
F ran
Jahr en</w>
zwei </w>
av ail
coun try</w>
for t
th in
R ei
ta ur
i k
c ap
el d</w>
D at
ci p
be d
mu ch</w>
be k
com pl
or y</w>
öff ent
with out</w>
gan z</w>
poin t</w>
politi k</w>
gr ö
h än
ex t</w>
s ehen</w>
t om
H and
bu il
den n</w>
do ch</w>
in s</w>
dur ch
th re
l es</w>
li egt</w>
w n
lich er</w>
vi ron
cont inu
b re
in gen</w>
an ts</w>
ma chen</w>
bil ity</w>
R at</w>
his tor
is e</w>
w oll
ation alen</w>
per son
Gem ein
me as
wir tschaf
pub lic</w>
es en</w>
pri v
con si
ge f
j etzt</w>
Fra ge</w>
st u
l and
en z</w>
Entwick lung</w>
Z ei
cle ar</w>
b ri
eg r
ad t</w>
al ten</w>
de m
ein ige</w>
& amp
&amp ;</w>
fin d</w>
c ol
sin ce</w>
en st
es ts</w>
C hin
ent sp
f und
ne ed
glei ch
itt ee</w>
v ari
ä hr
all en</w>
G en
5 0</w>
oper ation</w>
is ch</w>
an g
be wer
qu ality</w>
Po li
Ber ich
ig er</w>
ou t
sion s</w>
ant wor
la g</w>
er r
ver schied
so ci
tig t</w>
M ö
b it
fall s</w>
biet et</w>
Bes ch
ü h
ar ds</w>
in stitu
ungs an
g lob
sti ll</w>
num ber</w>
ec ted</w>
cur r
eb en
d ru
S it
f ut
servic es</w>
di g</w>
W or
wä h
n ehmen</w>
n te</w>
m eine</w>
f es
lei st
besonder e</w>
au m</w>
währ end</w>
k ur
a gement</w>
so cial</w>
K in
führ en</w>
in nen</w>
dur ing</w>
s eit</w>
posi tion</w>
f il
S u
c entr
fac t</w>
sa y</w>
cu st
i g</w>
B o
der s</w>
wei l</w>
em ents</w>
be fore</w>
a z
servic e</w>
conc ern
l ungen</w>
e ver
at te</w>
ru pp
e g</w>
al t</w>
t liche</w>
wa ys</w>
d ra
k es</w>
shi p</w>
k no
l ast</w>
u e</w>
e p</w>
differ ent</w>
B ar
organ is
ri f
B </w>
chan ge</w>
avail able</w>
ul ation</w>
L u
b usin
1 2
al ready</w>
il y</w>
s et</w>
su m
isch er</w>
fin det</w>
bel ieve</w>
D is
en z
t ungen</w>
emp lo
str ateg
fut ure</w>
ih r</w>
aus ge
setz en</w>
Untern ehmen</w>
en viron
gestell t</w>
cour se</w>
er te</w>
min is
da für</w>
Mö g
le x
gre at</w>
G </w>
M </w>
ti eren</w>
s on</w>
ei st
eg en
stell ung</w>
ent wick
N e
p ur
C ommission
fre e</w>
sel f</w>
at t
ro om</w>
vi du
b al
W elt</w>
zu sam
l ess</w>
g ar
In tern
nah me</w>
im m
tur al</w>
dec is
dar auf</w>
y n
T he</w>
P ri
3 0</w>
kl är
ol d</w>
A m
wie der</w>
sch on</w>
selb st</w>
sich er
prob lem
Th em
sa gen</w>
al ität</w>
ck en</w>
Parl am
un c
tw are</w>
op e</w>
au th
si de</w>
w o</w>
in ten
B ed
st an
som e
ti z
g s</w>
di tion</w>
to o</w>
da her</w>
ep t</w>
K ol
at s
o v
R ah
k now</w>
produc ts</w>
s ätz
z eit</w>
cont ro
h in</w>
grö ß
t ru
it al</w>
im pl
mi r</w>
ti schen</w>
thin k</w>
ver s
la gen</w>
nu n</w>
s einer</w>
r e</w>
an ge
au ßer
gen ommen</w>
su cc
Berei ch</w>
on -
Inform ationen</w>
är k
ar beit</w>
n eg
t schaft</w>
pres ent
f r
Ma ßnahmen</w>
gan g</w>
proc ess</w>
en te</w>
e ach</w>
le vel</w>
c ase</w>
eff ec
nat ür
t al
ris e</w>
so zi
sec on
V </w>
ur ity</w>
d ab
sch en
m ar
indi vidu
f est
g o</w>
e very</w>
ation s
dat a</w>
s af
l ungs
hum an</w>
re qu
ra p
p ut</w>
d y</w>
L age</w>
Commission er</w>
n ational</w>
J u
in de
im pro
ges am
ommis s
sat z</w>
is m</w>
w es
ma cht</w>
m us</w>
rü n
z un
wh ile</w>
dab ei</w>
g l
k e
ma in</w>
ai r</w>
ember s</w>
f ern
t yp
I s
n i
ques tion</w>
ti k</w>
ut es</w>
K ommiss
sp ra
hei ts
T re
n is</w>
b oo
amp le</w>
Herr n</w>
u </w>
em ent
N or
Fin anz
finan cial</w>
mög lich</w>
o ver
cust om
vi el</w>
at ely</w>
erg y</w>
sit uation</w>
p as
D em
mög lich
al o
a th
Prob lem
ep t
ihr en</w>
H o
m it
w eb
s timm
deb ate</w>
T ran
ig keit</w>
nec ess
bu d
b in</w>
Aus sch
z el
ma j
F </w>
issu e</w>
T ra
tra c
no v
a de</w>
ch il
Ar beit</w>
li on</w>
ish ed</w>
propos al</w>
Jahr e</w>
woll en</w>
stell t</w>
con s
wür de</w>
h en</w>
st eht</w>
c ity</w>
al lem</w>
g lich</w>
St and
F rei
icht lin
ver k
ex ample</w>
s ed</w>
L is
- S
c all
o d</w>
dar über</w>
f er</w>
m ei
des halb</w>
r o</w>
sa id</w>
da m</w>
s s</w>
me ans</w>
Ser vic
res ol
unser en</w>
off ers</w>
ver fü
ex peri
si mp
wor den</w>
kun ft</w>
wh y</w>
Arbei ts
ro oms</w>
ah l</w>
high </w>
P h
bas ed</w>
ins besondere</w>
ul t
fi ed</w>
app lic
gu t</w>
ta ken</w>
un ser</w>
f ast</w>
ig n</w>
l ü
is l
b ro
h eiten</w>
d rei
es sen
n or
k an
dis c
ar t
Me di
pe ti
leg al</w>
k ed</w>
ci tiz
re qui
Ver ein
bes t</w>
demo c
or ity</w>
tor s</w>
ad op
Hau sh
L and</w>
p rä
bes timm
P rei
200 9</w>
s es</w>
k ün
ti ert</w>
hel p</w>
f ic</w>
ac tion</w>
ne x
P al
el ec
k tion</w>
L and
c ent
th ough</w>
f äl
er st
n et
F re
wel t
bei m</w>
par tn
br ingen</w>
et was</w>
partic ular</w>
inclu ding</w>
ever y
b an
Pro jek
con di
ann t</w>
spe zi
prob lem</w>
wh e
meas ures</w>
A d
di re
c l
busin ess</w>
M an
c um
1 8
al y
ar t</w>
so f
qu e</w>
am end
setz ung</w>
de fin
bi eten</w>
lu g
sm all</w>
war d</w>
Comm ittee</w>
ich ts</w>
3 ;</w>
&#9 3;</w>
comm on</w>
l ong</w>
al th</w>
agre ement</w>
er fol
t sp
n ing</w>
for t</w>
ver b
en ces</w>
u al</w>
citiz ens</w>
acc ess</w>
no t
ord in
1 ;</w>
&#9 1;</w>
Unter stütz
ac coun
fur ther</w>
us ing</w>
nex t</w>
1 0
H ot
gi ve</w>
Chin a</w>
y -
in iti
i ous</w>
1 5</w>
en ergy</w>
are as</w>
gi ven</w>
än der
war en</w>
off er</w>
g ar</w>
e k</w>
m et
st s</w>
ut z</w>
wel che</w>
geh ör
ur s</w>
er halten</w>
d ings</w>
in ing</w>
sp re
olog y</w>
s icht</w>
L ös
necess ary</w>
-L SB-</w>
est abl
pres ent</w>
M r
op p
Län der</w>
er gi
Rech ts
tig ung</w>
B eh
Per son
p t
w ach
ß t</w>
De ut
ens ure</w>
z ü
li g
ten s</w>
ges etzt</w>
sch ein
ci es</w>
c al</w>
T echn
Z immer</w>
provi de</w>
inc reas
-R SB-</w>
d ungen</w>
p unkt</w>
b ack</w>
re m</w>
v </w>
on g
A ut
Ver fü
ei g
ag t</w>
ch es</w>
schließ lich</w>
ti vi
g rei
rec ei
h äl
B el
natür lich</w>
ar o
U r
S ei
n ame</w>
por ts</w>
Unterstütz ung</w>
d est
emplo y
fe w</w>
es sen</w>
au tom
loc ated</w>
ag ain</w>
ver wen
k ey</w>
zi eh
ä t
as k</w>
all er
Rah men</w>
Parlam ents</w>
thre e</w>
k a</w>
syst ems</w>
aff en</w>
sec urity</w>
Men schen
s ure</w>
wich tig</w>
al er</w>
problem s</w>
n ten</w>
all er</w>
i ons</w>
k t
ord nung</w>
Zusammen arbeit</w>
om en</w>
t ä
er ten</w>
fol low
St ra
un de</w>
tra di
H il
comp any</w>
Pro z
com peti
comp an
di gen</w>
geb o
ad v
le t</w>
l er
politi schen</w>
ass ung</w>
er sten</w>
mo der
ul arly</w>
op port
arbei ten</w>
trä ge</w>
ti al</w>
vo te</w>
v ot
et ing</w>
lar ge</w>
Änder ungsan
ie der
g le</w>
w rit
j a</w>
th ir
co operation</w>
Vorsch lag</w>
en ten</w>
sol l</w>
pra c
Tei l</w>
i d
1 2</w>
s y
best eht</w>
o l</w>
se qu
po p
ul es</w>
sh all</w>
pl ay
ex is
E -
Ar t</w>
utz en</w>
W in
si bility</w>
in vol
D eb
ic k
an other</w>
f te</w>
di d</w>
wich tig
m ehr
ör der
f ar</w>
F all</w>
s tim
ear ch</w>
d ate</w>
leg isl
a k</w>
ti sche</w>
lo ssen</w>
Bür ger</w>
b lei
tu n</w>
tro l
gro w
gab e</w>
wär e</w>
zu g</w>
drei </w>
taur ant</w>
Län dern</w>
consi der
so ur
einf ach</w>
c oll
bet ri
gr und</w>
i zi
G el
d ri
g lau
t ungs
be deut
whe ther</w>
ein mal</w>
P or
bit te</w>
G u
m einer</w>
ob jec
e as
li fe</w>
führ ung</w>
L eb
en nen</w>
ti ce</w>
Fra gen</w>
at s</w>
ol e</w>
k ri
sa m</w>
co m</w>
war ds</w>
ven tion</w>
im p
Ver k
impl ement
der en</w>
r än
m ul
K ar
h ope</w>
i an</w>
Prob lem</w>
la w</w>
ir e</w>
ge ther</w>
K om
gro up</w>
T ur
EU -
ai d</w>
st re
20 10</w>
weiter e</w>
se ver
int egr
ter stat
A mer
V ol
tra gen</w>
ord n
to gether</w>
Z iel</w>
Inter net</w>
inn er
need s</w>
N amen</w>
letz ten</w>
St u
ous ly</w>
sp ar
G re
An wen
s einen</w>
ichtlin ie</w>
ful ly</w>
S a
at ten
ple ase</w>
Amer ic
Kol legen</w>
ett bewer
al ways</w>
le a
L in
viel en</w>
Syst em</w>
wor king</w>
ha pp
tei l</w>
Z iel
d ge</w>
t sch
Par tn
st ra
tion s
G ar
gro ße</w>
st er
produc tion</w>
Gro up</w>
en jo
ge führt</w>
pro mis
z o
itä ten</w>
r y</w>
an ges
re co
M u
zei gt</w>
cul tural</w>
Wir tschaf
mat eri
ess es</w>
schaf ten</w>
i ev
port e
sp iel</w>
s si
u l</w>
gab en</w>
str eng
da ys</w>
Mil li
H </w>
M ein
B est
ti l</w>
e qui
Ent schei
ad d
Or gan
n ess</w>
in d</w>
ent ru
re chte</w>
St adt</w>
Be deut
prot ection</w>
m a</w>
ol o
do wn</w>
US A</w>
o ti
Un ited</w>
b l
Gesch äf
tra g
h ear
p rü
H ouse</w>
ol le</w>
bet ter</w>
o th
rü ck
n isse</w>
es p
gro ßen</w>
wei ter</w>
1 .
Haush al
besonder s</w>
ing ungen</w>
. com</w>
D aten</w>
komm t</w>
F ri
li ght</w>
mitt el
Verfü gung</w>
par ti
fi z
Comm unity</w>
gen d</w>
b asi
Rech t</w>
Er geb
öl k
Bedeut ung</w>
program me</w>
po wer</w>
es se</w>
dr en</w>
200 8</w>
pl at
t -
k re
In stitu
ap pe
H in
et er</w>
B r
speci al</w>
be w
regi on
p ack
all es</w>
th ank</w>
tr it
ur al</w>
Sicher heit</w>
ma king</w>
partic ularly</w>
curr ent</w>
th em
o -
str y</w>
sp ek
so wohl</w>
F am
Geb i
zur ück
ü ck</w>
B en
m ental</w>
tig keit</w>
l is
wis sen</w>
tra de</w>
Sei te</w>
sta y</w>
ma in
Fra ktion</w>
en ing</w>
ori ties</w>
j u
c a</w>
indu stri
D es
gen en</w>
k ein</w>
den ce</w>
rap porte
pf lich
tim es</w>
0 0
ar ch
Mög lichkeit</w>
n äch
fer ence</w>
Sp iel
Berich terstat
da von</w>
not wen
bec ome</w>
mu ß</w>
Mr s</w>
st e
glei ch</w>
K </w>
wor k
ic ul
m b
aro und</w>
ter ms</w>
K ri
ex tre
gro ß
pl ac
gu ar
k om
I r
o cc
cer tain</w>
ger n</w>
En ergi
W oh
n t</w>
fes sion
chil dren</w>
diff icul
ff e</w>
ab hän
entsp rech
Min is
bas is</w>
g ed</w>
ent schei
sch er</w>
tiv es</w>
S e
is mus</w>
Un i
U </w>
re al</w>
an zu
p i
er forder
s ing</w>
con f
m ä
Sta aten</w>
we gen</w>
con tri
un ic
op en</w>
resul t</w>
on ce</w>
or ig
p t</w>
f ar
go ing</w>
Them a</w>
n am
man agement</w>
f unc
issu es</w>
ver sch
t on</w>
Sch l
ex pres
w o
lo s</w>
h r</w>
tei l
per f
des sen</w>
n &apos;
i ma
g ing</w>
st ate</w>
c ris
en zen</w>
F lug
kön nte</w>
W el
Str ateg
w omen</w>
ec ts</w>
ul tur
Problem e</w>
loo k</w>
k m</w>
S k
condi tions</w>
si a</w>
Kommiss ar</w>
äm pf
ell schaft</w>
st en
ent fern
og ra
n&apos; t</w>
t el
d ent
inner halb</w>
ff t</w>
su chen</w>
di c
d lich</w>
ai l</w>
w eit</w>
spre chen</w>
in es</w>
compan ies</w>
secon d</w>
ben ef
rei ch
am e
1 1</w>
du stri
c as
lex i
ra cht</w>
S of
ful l</w>
or en</w>
is sen</w>
w are</w>
in nov
Poli tik</w>
Wei se</w>
ier ten</w>
du ce</w>
f a
in f
i fic
dar f</w>
F ahr
B eg
of f</w>
Hau pt
K unden</w>
li k
regi on</w>
ran ge</w>
sam en</w>
ex ten
experi ence</w>
B i
Di enst
zah l
R us
zw ar</w>
Reg ierung</w>
inv est
T o
R ep
esp eci
vari ous</w>
g ress</w>
guar ant
ak tu
at ur
k tur
wei sen</w>
par t
k ra
ro le</w>
especi ally</w>
L ei
gr und
d -
U S</w>
ich te</w>
contro l</w>
ra ch
vor sch
ur y</w>
errei chen</w>
G ä
at ten</w>
sec tor</w>
h and</w>
v e
tre ten</w>
ü hr
Wirtschaf ts
is ed</w>
sel ves</w>
tur n</w>
unterstütz en</w>
indu stry</w>
ation ale</w>
Ihr er</w>
W i
priv ate</w>
at y</w>
ell er</w>
n ei
o s
mat ter</w>
Zu kunft</w>
entru m</w>
at or</w>
he alth</w>
W o
lie gen</w>
je der</w>
lich keiten</w>
O p
tic s</w>
lei ch
Gen er
x im
Fam ili
mö chten</w>
be findet</w>
de f
eigen en</w>
200 0</w>
b or
wirk lich</w>
a vi
vie ws</w>
P lat
neg oti
b lick</w>
En de</w>
F ol
wh ole</w>
bur g</w>
v il
Ar tik
w w
P ol
h ang</w>
gegen über</w>
u es</w>
rit te</w>
d one</w>
resp ect</w>
bud get</w>
di st
gel egt</w>
ch o
Bei spiel</w>
R u
Eur o</w>
ing t</w>
A t
h atte</w>
I m
speci fic</w>
er st</w>
1 00</w>
en ter
W er
t ot
so li
ih nen</w>
K un
res earch</w>
rif ten</w>
W ettbewer
accoun t</w>
di </w>
to ur
d ort</w>
an k
o c
u te</w>
govern ment</w>
or e</w>
verschied enen</w>
ier te</w>
le ben</w>
proc ed
a -
w ish</w>
wel come</w>
d el</w>
dig keit</w>
C hr
ec k</w>
ut er</w>
er ing</w>
z ep
sa ge</w>
G rupp
y et</w>
h au
ein zu
follow ing</w>
her vor
is ation</w>
sever al</w>
l in</w>
h il
sch l
do cum
glob al</w>
autom ati
di stri
ab o
ati ven</w>
k rati
R olle</w>
re duc
w a</w>
200 7</w>
call ed</w>
z entr
w ater</w>
F l
per s
A fri
en der</w>
l ed</w>
l ab
O ff
N utz
ab ly</w>
In v
loc al</w>
C O
For sch
inc re
ou th</w>
ö h
R ich
entfern t</w>
G o
pro fession
politi sche</w>
us e
intern ationalen</w>
i denti
rapporte ur</w>
W eg</w>
K re
R ück
R om
p a
continu e</w>
sub ject</w>
wi de</w>
aller dings</w>
dire kt</w>
olo gi
employ ment</w>
rei chen</w>
um fas
en cy</w>
ch t
g ri
o un
zusam men
res er
d ür
resol ution</w>
F unk
sp or
l s</w>
ech an
Fr auen</w>
th e
europä ische</w>
un tern
tiv </w>
Leb ens
mo dern</w>
ish ing</w>
spra che</w>
stimm ung</w>
an s
ter m</w>
mil lion</w>
zi ehen</w>
ß en
m ing</w>
t ar
e qu
gent lem
außer dem</w>
al es</w>
eu er
an y
res our
em e</w>
in a</w>
some thing</w>
ei cht</w>
in tro
z ed</w>
f y</w>
ec k
Geschäf ts
a de
centr e</w>
mä ß
dru ck</w>
ge währ
Servic e</w>
gentlem en</w>
reg ard</w>
reg ul
pro ject</w>
maj or</w>
f lo
J un
R ichtlinie</w>
2 5</w>
G rün
ent er</w>
sof tware</w>
re ally</w>
Dem ok
ta king</w>
D r
u tions</w>
denti n</w>
EU R</w>
la dies</w>
B al
of ten</w>
cris is</w>
ame work</w>
op tim
it self</w>
su ff
d ungs
Ger many</w>
ef ul</w>
ein zel
and s</w>
k omp
In dustri
er ste</w>
t ext</w>
G ef
i k</w>
mul ti
den cy</w>
d ou
m el
des ign
eh men
m es</w>
4 0</w>
on n
direc tive</w>
1 6
jec ts</w>
beh al
del i
star t</w>
fac e</w>
op in
c ro
stat t</w>
Ihr en</w>
minis tr
du </w>
clo se</w>
200 6</w>
ah n
In di
An t
ati ves</w>
e ur
rü h
thir d</w>
Ges und
reg is
pl an
f el
gu e</w>
be au
r ules</w>
Ger man</w>
P ra
ier ungs
G i
ter r
mu si
h under
h ät
lan gu
Ta g</w>
di sp
gener al</w>
g il
c li
zi al
cre ate</w>
mil it
Ver brau
W ar
Mein ung</w>
as ser
f all</w>
es sion</w>
lich es</w>
p ay
C ar
conc lu
as p
f unk
wie der
lan g
A T
är e</w>
an st
b lo
parti cip
E ben
transp ort</w>
un til</w>
I N
po l
a gen
F u
P f
exc ell
or ding</w>
w ahr
I t
eh m
du z
ab sol
ver sion</w>
su pp
Artik el</w>
E m
ili ties</w>
c el
u li
mer k
decis ion</w>
reco gn
bu tion</w>
Ma dam</w>
ati s
le ast</w>
Ih r</w>
as se</w>
fra ge</w>
es ti
F ir
an der</w>
to wards</w>
H ei
b rei
ad ing</w>
grow th</w>
b ut
re present
schaf ts
g än
T e
K omm
19 8
me tho
con tain
Deut sch
T err
1 5
fo und</w>
custom ers</w>
institu tions</w>
Ab ge
cul ture</w>
Sit uation</w>
sh e</w>
ach iev
ver besser
m ot
vis ion</w>
ra ther</w>
bei den</w>
wn lo
ol s</w>
sch ri
n on-
at er
y o
L a
Zusammen hang</w>
Program m</w>
lä ge</w>
environ ment</w>
det ail
Ent schließ
C omp
12 4
ges agt</w>
p ro</w>
uss es</w>
comm unic
U hr</w>
1 7
li es</w>
eff ici
sit u
du e</w>
ha ving</w>
vi a</w>
auf en</w>
le ar
p ic
F isch
agre e</w>
wen iger</w>
beg rü
sin gle</w>
con struc
l en
z ung</w>
2 .
unser em</w>
land s</w>
person al</w>
zu sätz
incre ase</w>
am ong</w>
es ten</w>
ach t</w>
Tre aty</w>
li gen</w>
b s
J an
dar an</w>
fic ation</w>
man u
wor ks</w>
individu al</w>
tr on
a way</w>
an aly
lan g</w>
th ings</w>
X </w>
gr at
rit t</w>
produc t</w>
in dem</w>
st o
f ris
eig n</w>
E C
la y
D ur
gen d
&# 124
gu te</w>
Is ra
for ward</w>
Hil fe</w>
sp ec
auf grund</w>
Ver antwor
w le
posi tive</w>
ple as
th s</w>
c ed</w>
tivi ties</w>
- B
enjo y</w>
Präsi dentin</w>
Reg i
pl es</w>
lo g
stand ards</w>
ger ade</w>
L an
Mitt el</w>
mon ey</w>
itt le</w>
ac tu
e ad</w>
aus zu
Demok rati
Lös ung</w>
It ali
w ün
1 3</w>
co ver
ta ge</w>
fi eld</w>
er zi
opport unity</w>
Produk te</w>
F il
so gar</w>
er min
in stru
po ten
Sch ul
B .</w>
er war
o d
pre par
ck s</w>
pers ön
Mitt el
ges t</w>
sign ific
j en
pl ay</w>
er a</w>
Um welt
K l
alis ierung</w>
B ri
forder ungen</w>
us er</w>
bar en</w>
on line</w>
di o</w>
b au</w>
appro ach</w>
amend ments</w>
Reg ion</w>
Dienst leist
B au
resour ces</w>
p rec
wor t</w>
vol l</w>
aus sch
c all</w>
pre v
M i
eben falls</w>
r ate</w>
al low</w>
qu ite</w>
on ds</w>
öffent lichen</w>
li g</w>
gil t</w>
up s</w>
f ood</w>
M embers</w>
Hot els</w>
av our</w>
ra cy</w>
gesch lossen</w>
st ärk
ver stän
et wa</w>
ag o</w>
al though</w>
pri ce</w>
tur es</w>
li </w>
H ar
Sp an
Fran k
dar in</w>
an im
zei tig</w>
ac tivities</w>
S ü
e duc
vi ol
ch er
sch rei
d ly</w>
re cht</w>
kno wn</w>
Mu si
oo l</w>
prin cip
excell ent</w>
sh </w>
Ch ar
N ov
A ir
® </w>
form s</w>
v ement</w>
b zw
l ittle</w>
d om
lä u
St ru
gr ün
R i
h im</w>
kün f
bzw .</w>
fin ally</w>
An gel
inter est</w>
propos als</w>
fo c
ann ten</w>
um s</w>
rit eri
v ely</w>
lei sten</w>
Gr und</w>
der zeit</w>
L eben</w>
orig in
tr au
el eg
P ak
gen au</w>
H aus</w>
loc ation</w>
hin aus</w>
is ts</w>
Europ as</w>
effec tive</w>
n äm
econom y</w>
transp ar
Er fahr
näm lich</w>
fra gen</w>
rei ch</w>
ück sich
techn ology</w>
Sch utz</w>
U N
In iti
äch lich</w>
ge macht</w>
berei ch</w>
sp ä
K or
provi ded</w>
ge geben</w>
Milli onen</w>
betri fft</w>
geb racht</w>
sol ution</w>
C entr
m om
sion en</w>
ex per
ef er
z t</w>
r a</w>
reg ar
requi re
E R
egen heit</w>
ad di
rati c</w>
ti sch</w>
200 5</w>
Sicher heits
et te</w>
ag ri
fe at
peri od</w>
e th
ma ch
Mitg lie
air s</w>
fr amework</w>
er klär
weiter hin</w>
Wor ld</w>
Dat en
ell eicht</w>
en ds</w>
saf ety</w>
am ent
B as
. .</w>
re gel
vi elleicht</w>
zah l</w>
pro gress</w>
Haushal ts
de ci
M ehr
E l
al tung</w>
m embers</w>
sich er</w>
sch ie
wes ent
al t
el s
co sts</w>
m ight</w>
fam ily</w>
K ap
us sion</w>
Ver hand
des ign</w>
poin ts</w>
appro pri
unter schied
mo sp
1 .</w>
a x
w ell
acc ording</w>
zei gen</w>
r icht</w>
buil ding</w>
adop ted</w>
z immer</w>
gen den</w>
bin dung</w>
K ü
com es</w>
m ember</w>
st off
Entwick lungs
f ig
ac tiv
unterstütz t</w>
sta in
abo ve</w>
l ing</w>
p ris
ges timm
S h
th us</w>
Abge ordn
f lexi
brau chen</w>
for ce</w>
ch all
ein igen</w>
St ate</w>
Eben e</w>
legisl ation</w>
D ok
pro z
A R
d rin
simp ly</w>
on ger</w>
bei spiel
e di
Aus sprache</w>
pro per
demo krati
O b
Rep ub
S ept
Kin der</w>
In stru
Z w
p age</w>
hand elt</w>
ih m</w>
V i
inclu de</w>
to wn</w>
ad s</w>
compl et
Zei t
st eh
f avour</w>
ih n</w>
ar s</w>
A c
b ank</w>
s weise</w>
beg inn
reas on</w>
I S
P unkt</w>
ra ft</w>
z eh
l a</w>
tiv en</w>
cer tain
opin ion</w>
fre ed
en h
sol che</w>
re p
K li
w ing</w>
G eg
respon sibility</w>
h eb
com ing</w>
Sept ember</w>
zusam men</w>
N ot
h ier
M at
k er</w>
ne ben</w>
j e</w>
stän dig</w>
200 4</w>
arbei tet</w>
oth ers</w>
gleich zeitig</w>
S i
all gem
K oll
bre ak
ta g</w>
an a</w>
pro jects</w>
tion ed</w>
C or
er weise</w>
val ue</w>
bi li
M or
inde ed</w>
em pf
h ome</w>
R ates</w>
n ichts</w>
Deutsch land</w>
s einem</w>
in e
ä d
ran k
wor ds</w>
N eu
En g
exc lu
rec omm
ag ed</w>
dür fen</w>
concern ed</w>
bo dy</w>
ür k
pl an</w>
behal f</w>
glau be</w>
tei le</w>
F rüh
cle arly</w>
poli cies</w>
1 4
stim men</w>
atten tion</w>
eben so</w>
Dur ch
Person en</w>
c ally</w>
je den</w>
ma kes</w>
an gen</w>
zeich net</w>
en ed</w>
difficul t</w>
cont act</w>
Qu alität</w>
For m</w>
w eg
n ationalen</w>
d rück
c lim
E ig
dan ken</w>
resul ts</w>
d ro
n utzen</w>
Ab stimmung</w>
sen den</w>
fi le</w>
pro chen</w>
ad ministr
di en
1 4</w>
ques tions</w>
soll en</w>
am oun
olog ie</w>
mög lichen</w>
mitt el</w>
W ach
T our
ic s</w>
D o
A N
Er fol
compl ete</w>
at ur</w>
D ru
lu b</w>
st ei
ri eb
po wer
gro ups</w>
eh mer</w>
T at
on es</w>
Jan u
t ats
i tion</w>
Web site</w>
em üh
re alis
ier ungen</w>
provi des</w>
sch affen</w>
ä um
gre ater</w>
am eri
en k
kl ar</w>
import ance</w>
s se</w>
L e
f ang</w>
sho w</w>
S ek
l ist</w>
t able</w>
Gemein schaft</w>
K omp
cre di
gestimm t</w>
applic ation</w>
gem ä
sp i
pos e</w>
Wir tschaft</w>
di ge</w>
äh igkeit</w>
s ci
web site</w>
environ mental</w>
vot ed</w>
* </w>
In t
succ ess
G ol
wor d</w>
Besch äf
soci ety</w>
6 0</w>
p ass
ad dition</w>
strateg y</w>
J ap
Rech te</w>
Ges etz
wir tschaft</w>
char ac
k einen</w>
intro duc
tei len</w>
mei sten</w>
sp ru
un ver
ig ung</w>
le ft</w>
abhän gi
le b
pro mo
ih rem</w>
hal t</w>
geb ung</w>
beh and
th an
p at
fre und
do ws</w>
ho ch
Koll eg
to ber</w>
gehör t</w>
li ed</w>
Jahr hunder
For tsch
T V</w>
äch st</w>
for man
el ess</w>
ogra ph
wich tige</w>
ko sten
gen de</w>
F ar
sit es</w>
ide al</w>
rei che</w>
Ber lin</w>
ig r
for ts</w>
utz t</w>
ü l
Wel t
li ber
200 3</w>
ati c</w>
ben ö
op s</w>
1 8</w>
princip le</w>
Sof tware</w>
l et
li ve</w>
Ben utz
alo g</w>
wür den</w>
in o</w>
wirtschaf tlichen</w>
tra ining</w>
Dok um
zun ächst</w>
mo un
b are</w>
curr ently</w>
a di
sch wi
ob wohl</w>
fü r
s ei</w>
rec ent</w>
al ong</w>
mark t</w>
c ing</w>
bedeut et</w>
in t</w>
st y
ah l
inter est
L eist
t em
de al</w>
imm t</w>
Be zug</w>
trit t</w>
w and
rei b
it ing</w>
chan ges</w>
beau ti
den ten</w>
ro ad</w>
gro und</w>
E S
af f</w>
k ind</w>
direc tly</w>
z äh
unk te</w>
Bür ger
in -
ges ehen</w>
li z
ci r
po st
zu stellen</w>
B ev
manu fac
K amp
2 4</w>
sh ar
j us
rif f</w>
h y
I I</w>
st ep</w>
sa che</w>
vers ity</w>
Ne w</w>
respon sible</w>
I C
an di
G ra
Intern ational</w>
setz t</w>
b on</w>
tn is</w>
lich t</w>
Al l
l ö
f ron
au t</w>
W il
beispiel sweise</w>
re fer
bes ser</w>
ou ght</w>
hal te</w>
Be zieh
ich tet</w>
ro w</w>
p rei
am ental</w>
trol le</w>
ä he</w>
auth orities</w>
k ar
deut lich</w>
4 -
A S
S al
st ly</w>
Bes u
schn ell</w>
S in
Or t</w>
ap art
sta at
zeich n
Ges ellschaft</w>
M E
wer de</w>
ein ger
h ör
Gro ß
S y
techn ical</w>
sen d</w>
am m
b ed</w>
sh ort</w>
m echan
ch en
gu i
uni ties</w>
b ish
erfol grei
requi red</w>
lo ws</w>
Wach st
H e
eas y</w>
sich tlich</w>
Zu gang</w>
por ted</w>
ach ieve</w>
fü h
fü n
1 6</w>
me eting</w>
D ank</w>
en ess</w>
Strateg ie</w>
wi esen</w>
a th</w>
ho li
i r</w>
lo t</w>
nat ural</w>
O n
ri g
po ol</w>
olog ical</w>
on a</w>
ach ten</w>
Sp ra
con su
Ko sten</w>
T el
Bev ölk
T i
ha f
bes ten</w>
essen tial</w>
we der</w>
200 1</w>
ser ious</w>
z es</w>
An sicht</w>
k or
An gebo
wi ll
ver s</w>
loo king</w>
näch sten</w>
sol utions</w>
S eiten</w>
gen ie
Menschen rechte</w>
5 -
ör den</w>
St ad
ger ech
Rich tung</w>
wer t</w>
cri min
1 3
h t</w>
F eh
Um setzung</w>
er neu
vor gesch
bek annt</w>
de u
K ur
Sch i
inst all
dar um</w>
v al</w>
ac ro
zü glich</w>
F örder
bet re
ein ander</w>
propos ed</w>
st aff</w>
s po
é </w>
Mark t</w>
mo ve</w>
min utes</w>
s et
I ra
e asi
democ racy</w>
Z i
M inu
add ress</w>
ein zi
pos ed</w>
pro duk
stand ing</w>
So zial
z a</w>
ta k
qu ali
tig er</w>
is ten</w>
D ie</w>
gu ests</w>
intern al</w>
at ors</w>
br ing</w>
f rü
mitt ed</w>
Go vern
Ver besser
o k</w>
struc ture</w>
ot s</w>
a .</w>
p tion</w>
S ec
taur ants</w>
re ach
inter ests</w>
comm it
Verein ig
ro und
ho ffe</w>
W </w>
ris k</w>
pp ed</w>
lin es</w>
s el</w>
terr or
ex pl
hum an
p ast</w>
min d</w>
ass er</w>
h on
fam ili
c are</w>
Mit arbei
develop ed</w>
Ver trag</w>
Ver fahren</w>
al tern
st or
d au
Verantwor tung</w>
än dern</w>
Ziel e</w>
wirk ungen</w>
0 .
stat t
reg ulation</w>
mon ths</w>
up on</w>
notwen dig</w>
cont ent</w>
ag er</w>
con n
spe ak
fü l
m al
car ri
con trac
C as
wel t</w>
je de</w>
ori es</w>
Pri v
A C
s ha
si g
vis it</w>
require ments</w>
Par tei
al low
k enn
ig keiten</w>
implement ation</w>
de ck
ef forts</w>
su stain
wle dge</w>
beauti ful</w>
competi tion</w>
freed om</w>
Bed ingungen</w>
mark ets</w>
o ft</w>
regi ons</w>
fe el</w>
sch ö
par ties</w>
extre m
l onger</w>
ac tive</w>
schri ft
c al
le x</w>
lan ge</w>
need ed</w>
ar ti
Kli ma
Nov ember</w>
im e</w>
invol ved</w>
con sequ
st är
Vorsch läge</w>
us es</w>
Demokrati e</w>
aff ung</w>
n ed</w>
f ung</w>
s ab
anc ed</w>
ing ly</w>
ant ly</w>
on d
nat ure</w>
sch t</w>
a den</w>
je wei
an o</w>
z er
or d</w>
ev ents</w>
h ouse</w>
Dis k
schein t</w>
gemein samen</w>
bu s</w>
them selves</w>
P i
fort un
Inter esse</w>
ber ücksich
t ex
yo ung</w>
tic le</w>
sch ön
e gen</w>
t z</w>
histor y</w>
verwen det</w>
je des</w>
A spek
isch es</w>
Rus sia</w>
cent ury</w>
Grund lage</w>
N etz
gen u
A pri
f ail
Er weiter
mon it
Anwen dung</w>
is ion</w>
democ ratic</w>
19 7
ic ro
F o
sei ts</w>
com bin
ke ep</w>
D ec
en ough</w>
blei ben</w>
Au ßen
F e
per son</w>
a vo
st adt</w>
e f</w>
de pen
Herr en</w>
B ro
m as
ber u
for dern</w>
negoti ations</w>
mb H</w>
oo ds</w>
vi ous</w>
200 2</w>
h ot
se par
lei der</w>
kön nten</w>
consi der</w>
L o
rich tung</w>
str ong</w>
Gebi et</w>
finan zi
N ähe</w>
er möglich
se a</w>
geb i
stand ard</w>
ac y</w>
pe ace</w>
inn en
S or
Arbei tsp
errei cht</w>
cas es</w>
ä t</w>
än de</w>
sozi alen</w>
S ol
ta kes</w>
ma xim
+ </w>
de mon
zo gen</w>
&#124 ;</w>
des cri
hö ch
region al</w>
I de
itä ts
Ver sion</w>
ver fol
Deb atte</w>
Mög lichkeiten</w>
forder t</w>
ei ch
s wi
rel ev
ges etz
f our</w>
hal tung</w>
B oo
kl einen</w>
st ation</w>
situ ated</w>
ist an</w>
c aus
min im
ur t</w>
verschied ene</w>
l an</w>
Apri l</w>
appropri ate</w>
t op</w>
develop ing</w>
Ih rem</w>
Z ah
ur ing</w>
Institu tionen</w>
ser v
yn am
f eh
re f
tot al</w>
d lichen</w>
W es
T ex
extrem ely</w>
use um</w>
net work</w>
ne ver</w>
indi c
spiel en</w>
Er klär
addi tional</w>
C an
gel eg
b s</w>
ob lig
G mbH</w>
k u
äl t</w>
at ory</w>
har mon
res taurant</w>
b ark
R uss
Res taurant</w>
€ </w>
Rei he</w>
am es</w>
tru e</w>
ei ther</w>
ac tions</w>
an ten</w>
Gesch ichte</w>
vi er</w>
P rin
äu ßer
Inv esti
gra m</w>
s eh
tor y</w>
P rä
m us
ag ing</w>
a im
pres s</w>
kon kre
educ ation</w>
Ver wal
funk tion
at trac
re form</w>
inde pen
su cht</w>
do wnlo
auf ge
organ iz
fo und
get s</w>
ver ein
I T</w>
ver antwor
pri ces</w>
Tei l
forman ce</w>
fund amental</w>
entwick elt</w>
direc t</w>
hear t</w>
En gl
M et
ma il</w>
fund s</w>
wen ig</w>
ari an</w>
p an
b ra
gemein same</w>
tw eit</w>
w an
s st</w>
sp ort</w>
fort able</w>
al most</w>
ev ent</w>
F est
eff izi
n immt</w>
on d</w>
Em pf
te am</w>
tats ächlich</w>
alo gue</w>
wel tweit</w>
sch ul
sp ace</w>
g s
centr al</w>
glei chen</w>
ber eit</w>
R is
Di rec
su g
Berichterstat ter</w>
K enn
ill a</w>
8 0</w>
langu age</w>
b li
r icht
gegen wär
sh are</w>
d re
st ates</w>
lä tz
clim ate</w>
f -
Po si
impro ve</w>
Presi dency</w>
Vol k
D amen</w>
succ ess</w>
Aus wirkungen</w>
ei gent
d ar</w>
her r
col le
li eg
W ieder
lat er</w>
requ est</w>
vi l</w>
off ici
every thing</w>
St ell
T r
Her aus
B ek
S pe
plat z</w>
fer enz</w>
bal d</w>
S el
und s</w>
f f</w>
erforder lich</w>
untern ehmen</w>
A L
cre ated</w>
Ab kommen</w>
D u
Intern et
li eren</w>
se en</w>
ermöglich t</w>
ver l
abl es</w>
for eign</w>
cor rec
throu gh
des t</w>
er hö
ehr s
lin ks</w>
c la
be finden</w>
g a
actu ally</w>
uni k
I T
than ks</w>
ex am
gemein sam</w>
Win dows</w>
materi al</w>
Fisch er
r ates</w>
verfü gt</w>
l ack</w>
A G</w>
Ver f
so on</w>
In n
sen schaf
im medi
ab zu
c op
an ischen</w>
Hin blick</w>
g rupp
R at
A D
b ack
re t
hel d</w>
hel fen</w>
eff ect</w>
en cour
gn isse</w>
certain ly</w>
Verhand lungen</w>
R echn
ti </w>
stan den</w>
mitt eln</w>
sh or
tre at
c lick</w>
me et</w>
boo k</w>
W ähr
Ar ch
schlie ßen</w>
com b
ah </w>
en -
20 0</w>
Int egr
work ers</w>
Eur o
ch oo
c o</w>
C B-</w>
acc ept</w>
E N
Isra el</w>
h atten</w>
det ermin
c ar</w>
r es</w>
sp ir
Dienstleist ungen</w>
re ma
aus gest
M is
Fran ce</w>
er seits</w>
par ts</w>
Tat sache</w>
ist ance</w>
ha ps</w>
anges ichts</w>
da durch</w>
design ed</w>
no te</w>
manufac tur
p ay</w>
ameri kan
kt ur</w>
gesam ten</w>
in ation</w>
Mitglie der</w>
B ank</w>
abl ed</w>
ver fahren</w>
n ation
jen igen</w>
zu dem</w>
sp räsi
B ur
F äl
under stand</w>
lo s
us ers</w>
per haps</w>
er wäh
199 9</w>
Ak tiv
Ho ch
wi l
Program me</w>
recei ve</w>
ob s</w>
den ke</w>
K at
le ad</w>
proced ure</w>
einzel nen</w>
intern ationale</w>
in en</w>
k li
A ff
fall en</w>
F ühr
through out</w>
typ e</w>
k ultur
Kolleg innen</w>
den ken</w>
con nec
S ti
ru n</w>
c at
h en
eri es</w>
co st</w>
A p
bil dung</w>
Regi onen</w>
V iel
f air</w>
Minu ten</w>
z er</w>
ph as
ta x</w>
rel ated</w>
lä ssi
ide a</w>
war um</w>
uni que</w>
häl t</w>
5 00</w>
lo se</w>
P ub
Sch ritt</w>
invest ment</w>
in ge</w>
mis sion</w>
sch utz
fac ilities</w>
g um
hät te</w>
K ir
t est</w>
3 .
P -
u ally</w>
län dern</w>
maj ority</w>
Ö ff
ap </w>
m ut
schl uss</w>
H af
S ub
ex tern
ver ur
an gem
do ing</w>
Änderungsan träge</w>
vor zu
con sum
M al
Wir k
colle ag
si ert</w>
B ef
ämpf ung</w>
weiter en</w>
änder t</w>
r ing</w>
Ein zel
$ </w>
z one</w>
T ürk
o w</w>
Entschei dung</w>
le ading</w>
W asser
or ing</w>
gemä ß</w>
ta x
Fr en
tei lung</w>
Grupp e</w>
bes u
ne ar</w>
er ed</w>
Ergeb nis</w>
communic ation</w>
pub l
je dem</w>
z .
Off ice</w>
inclu ded</w>
Früh st
t ation</w>
e ch</w>
as soci
Ver tre
B innen
pra k
B ra
c t</w>
J o
Änderungsan trag</w>
an den</w>
Bet rieb
Di en
Berei chen</w>
V ide
las si
m ent
selb st
signific ant</w>
h ard</w>
St euer
H ö
P lan
vic e</w>
ap er</w>
Li ber
bi g</w>
guarant ee</w>
exis ting</w>
lä sst</w>
f ähigkeit</w>
si mil
wäh len</w>
rel ations</w>
sur round
concern ing</w>
ei en</w>
amoun t</w>
le k
entschei den
tr a</w>
sam keit</w>
initi ative</w>
For m
Bezieh ungen</w>
a ware</w>
ein ge
an gen
ah n</w>
ear ly</w>
Vereinig ten</w>
e den</w>
igh ts</w>
f ör
for men</w>
cap ital</w>
Ant wort</w>
Kon z
concern s</w>
Americ an</w>
c amp
ph ot
c am
rel ig
wen dung</w>
sen de</w>
z ig
musi c</w>
cont ext</w>
regar ding</w>
ari a</w>
b au
rich tig</w>
p ment</w>
f lä
wer k</w>
li ving</w>
men tioned</w>
we ek
Au stri
o wn
hin sichtlich</w>
re ach</w>
Woh n
s is</w>
Z entrum</w>
al ist</w>
ac comm
c ard</w>
m ein</w>
as h
K rise</w>
an te</w>
l ong
ic ally</w>
Bevölk erung</w>
i eb
en or
co ordin
ult ur</w>
am a</w>
out side</w>
Abgeordn eten</w>
kon nte</w>
an z</w>
s atis
program mes</w>
con ven
wich tigen</w>
Ta ges
ar ri
us sel
1 7</w>
Fren ch</w>
am bi
no thing</w>
D E</w>
Erfol g</w>
er lau
at tet</w>
f al
sch utz</w>
Tur key</w>
ger ne</w>
decis ions</w>
w under
ber g</w>
St re
en ge</w>
ch ed</w>
Aus druck</w>
h u
comm er
end ly</w>
li gh
g res
mehr ere</w>
k ol
ul ate</w>
o se</w>
wei ß</w>
Reg el
acc ept
F ot
v öl
w ahl</w>
P at
Bes timm
f ran
su per
Pro to
er inn
ri eben</w>
b ly</w>
fin al</w>
co ver</w>
qu ick
Auf gabe</w>
inst ead</w>
gab </w>
Sta ats
en lar
fam ous</w>
acro ss</w>
app ly</w>
kl eine</w>
r un
In st
blei bt</w>
Por tu
P e
K op
comm ittee</w>
demon str
Ph one</w>
ti er
lo k
igr ation</w>
imp act</w>
bo ard</w>
ander er</w>
d ents</w>
ich ten</w>
T er
tiv ely</w>
unser es</w>
m einen</w>
feat ures</w>
bark eit</w>
Plat z</w>
custom er</w>
ell ing</w>
hei ßt</w>
fi ve</w>
conf lic
su ch
verstän dlich</w>
agre ements</w>
se k
writ ing</w>
v a</w>
milit ary</w>
M ob
program m</w>
kon z
som it</w>
conn ection</w>
Türk ei</w>
B lick</w>
Z wei
to ok</w>
L ond
re fl
Ver pflich
vol le</w>
H ol
D ev
ati v</w>
be kommen</w>
kno wledge</w>
pop ulation</w>
establ ished</w>
pro gram</w>
fortun ately</w>
tradi tional</w>
res t</w>
G leich
medi a</w>
G eld</w>
m eines</w>
is ierung</w>
neu </w>
äh ri
vi r
über zeu
A s
it es</w>
sta ge</w>
Ver ordnung</w>
län der</w>
wirtschaf tliche</w>
St abil
Minis ter</w>
c ru
com par
we ek</w>
B us
an no
Kon trolle</w>
gra ph
z. B.</w>
Förder ung</w>
s ag
per formance</w>
reas ons</w>
Par k</w>
R O
vi er
C ol
fil es</w>
um e</w>
e y
erk enn
Ver bindung</w>
ing -
dig ung</w>
et z</w>
m als</w>
Americ a</w>
Ein satz</w>
prü fen</w>
h äu
erg ie</w>
Govern ment</w>
richt ungen</w>
S an</w>
is ti
be züglich</w>
lan gen</w>
enth alten</w>
W is
Partn er
vi de
par ty</w>
Sch wi
ad a</w>
dent schaft</w>
j obs</w>
si eht</w>
K ön
gef ähr
res tri
s sel
w .
complet ely</w>
, 000</w>
n ight</w>
re main</w>
ne w
k lu
h or
alis ation</w>
buil t</w>
partn er</w>
Forsch ung</w>
best eh
ver bin
mom ent</w>
s mo
gar anti
t a</w>
tre ffen</w>
cent er</w>
si an</w>
ma g
g lichen</w>
b an</w>
gehör en</w>
sei te</w>
ent ri
Prei s</w>
d le</w>
L A
recomm end
U kra
ho urs</w>
rech ts
bed ingungen</w>
r und</w>
et c</w>
rich ten</w>
am s</w>
M al</w>
Entschließ ung</w>
origin al</w>
B an
Ur lau
M as
T ri
Co urt</w>
j ähri
every one</w>
v in
vel s</w>
prac tice</w>
ver hin
Projek t</w>
partn ers</w>
Erweiter ung</w>
z ös
ec ting</w>
objec tives</w>
C hi
profession al</w>
l ag
comm unity</w>
e ed</w>
A gen
val ues</w>
Beh örden</w>
th ern</w>
con stitu
h of</w>
des p
me an
basi c</w>
m es
F ern
gan genen</w>
amend ment</w>
ber ech
proc ess
G eh
ten den</w>
t in
re ad</w>
Terr or
E R</w>
Jahr es</w>
eff ek
R el
le y</w>
d or
F eb
em is
t op
Fri ed
sor gen</w>
w at
nach hal
ww w.
m m
er -
der ung</w>
be ach</w>
ei gn
Bei trag</w>
bec om
s -
benef it</w>
ch eck</w>
inv es
ar d
Jap an</w>
p e</w>
St at
ob en</w>
cap ac
dem and</w>
al lows</w>
sen se</w>
break fast</w>
ak zep
s em
o t</w>
agri cultural</w>
i um</w>
Aussch uss</w>
la den</w>
stan ces</w>
in ed</w>
develop </w>
mo del</w>
pl ann
sch le
el ten</w>
ti n</w>
r ich</w>
con fi
O ber
ec tive</w>
conc ern</w>
con fir
K oh
syst em
tei lt</w>
v o</w>
Mark t
Nutz ung</w>
e ase</w>
li ert</w>
ent ed</w>
integr ation</w>
con grat
verwen den</w>
rei ben</w>
Lis bon</w>
Ho st
Wettbewer bs
tradi tion
par k</w>
Lis sab
rec ently</w>
zei t
auf zu
poten tial</w>
applic ations</w>
pro f
objec tive</w>
e es</w>
al -
a im</w>
rän k
s ou
inf lu
enth ält</w>
h es
h om
re ports</w>
pack age</w>
ann te</w>
m et</w>
un abhängi
wichtig sten</w>
stru ktur
f ight</w>
Partn er</w>
de p
bish er</w>
construc tion</w>
L ast</w>
s ett
lu x
H am
com fortable</w>
Feb ru
ast ro
high -
choo se</w>
d aten</w>
govern ments</w>
inclu des</w>
schwi eri
f s
l it
Ge wal
promis e</w>
P an
spä ter</w>
äh n
it able</w>
er y</w>
pur ch
un a</w>
recei ved</w>
wor l
eigen e</w>
zur ück</w>
enti re</w>
ter in</w>
r ing
19 </w>
Aussch usses</w>
consum ers</w>
fül len</w>
arbei tung</w>
er möglichen</w>
quick ly</w>
el en</w>
wis e</w>
Stru ktur
foc us</w>
ent ation</w>
B ar</w>
gesam t</w>
bet ei
st ep
is ing</w>
. ..</w>
success ful</w>
ph y
M ot
perf ect</w>
k ür
i er</w>
stell ungen</w>
Verbesser ung</w>
int eg
ter ran
h ous
be ein
V al
f est</w>
O R
genie ßen</w>
en ding</w>
treat ment</w>
r aum</w>
en er</w>
W al
Ges am
wo bei</w>
arch it
il s</w>
er heb
sk i</w>
P u
Sch wei
p le</w>
z en
Ge or
Ver anst
achiev ed</w>
Verbrau cher</w>
m y
ro ffen</w>
Not wen
se as
L eg
schließ end</w>
z lich</w>
Ir an</w>
wi d
G al
gan ze</w>
K am
eur o</w>
g oods</w>
ra ce</w>
accomm od
P re
ter rit
tor en</w>
Bu d
ex pen
ins gesamt</w>
a x</w>
tro tz</w>
zah len</w>
Auf enth
a da
gan zen</w>
N o</w>
p rise</w>
gen e</w>
desp ite</w>
Lond on</w>
as sen</w>
gen annten</w>
sour c
co de</w>
Par is</w>
increas ed</w>
holi day</w>
simp le</w>
d on
sci enti
man n</w>
eu er</w>
E N</w>
equi pped</w>
Arbei tn
T he
O c
contain s</w>
c y
gen au
di alogue</w>
Ergeb nisse</w>
7 0</w>
völ lig</w>
ir es</w>
Bar cel
so ft</w>
k ei
bo ur
st op</w>
Kon f
E- Ma
prev ent</w>
ver pflich
Au g
är en</w>
w ann</w>
n s</w>
ima ge</w>
verfü g
ur ed</w>
cho ice</w>
re mo
Sch affung</w>
G ri
se ems</w>
er sch
ur en</w>
sub si
frei </w>
rei fen</w>
E ff
el ek
grund leg
ü b
3 0
ü bri
m ean</w>
Wei ter
2 1</w>
W ort</w>
ec e</w>
trans l
ür f
er c
Gel egenheit</w>
J oh
E ast</w>
verbesser n</w>
at ure</w>
di schen</w>
ci ples</w>
d ynam
I M
F ach
fi g</w>
t el</w>
g ame</w>
Russ land</w>
un n
lim ited</w>
Ein k
Bu ch
em phas
Aff airs</w>
equi pment</w>
för dern</w>
vis ions</w>
Initi ative</w>
human it
kli cken</w>
den noch</w>
fü ll
sustain able</w>
Pri or
is ten
ein g</w>
Inform ations
comm itt
F lü
Lan des</w>
K rank
ch e
v eh
sozi ale</w>
w ech
T ext</w>
L a</w>
ans wer</w>
vorsch riften</w>
re turn</w>
fün f</w>
Ver wendung</w>
Hot el
i al</w>
groß er</w>
ra di
li ance</w>
web </w>
men d
st errei
M ag
beginn ing</w>
g ol
entwick eln</w>
dis ku
T ier
Mat eri
le vels</w>
verfü gen</w>
kl ar
e .
zahl reiche</w>
agre ed</w>
B ü
t est
r au
k tionen</w>
gr enz
be vor</w>
wei s</w>
ad ded</w>
ad d</w>
ar ch</w>
ep tion</w>
Lös ungen</w>
fri endly</w>
nach dem</w>
E lem
long -
saf e</w>
un fortunately</w>
j ob</w>
p al
Inter essen</w>
zun ehmen</w>
Wo che</w>
suff ici
V is
relev ant</w>
well -
W T
G lob
innov ative</w>
nu clear</w>
tra ff
we g</w>
acc ord
chall eng
on t</w>
ti sh</w>
vi ously</w>
9 0</w>
g igkeit</w>
In nov
in n</w>
Notwen digkeit</w>
c r
Geb äu
disc uss
gu ten</w>
ir gend
gan gen</w>
s cre
l ück
b order</w>
le dig
best ehen</w>
K ern
present ed</w>
h äre</w>
best ä
ar in</w>
sch ätz
en able</w>
bal ance</w>
fl ü
Aug ust</w>
S omm
carri ed</w>
commit ment</w>
c le</w>
2 2</w>
Änder ungen</w>
fi k
F i
Angebo t</w>
sam m
Gi pf
tion ing</w>
Gesund heits
t t
att emp
an genommen</w>
Arbeitsp lätz
N atur
D ar
m einem</w>
wen den</w>
So li
ent lich</w>
prin ciples</w>
d ates</w>
L inu
Mitarbei ter</w>
si ze</w>
Zeit punkt</w>
ti ef
g ül
g ei
high ly</w>
z ation</w>
spezi f
T ä
t ent</w>
Them en</w>
ein zig
hot els</w>
gu est</w>
F eri
N ieder
integ ri
S outh</w>
und es
m ed</w>
K ultur
mat ters</w>
lo ss</w>
li ef
Untern ehmen
s ex
H el
ma ßnahmen</w>
high er</w>
k ehr
ledig lich</w>
L eu
geh end</w>
V en
Am ster
di enen</w>
pres i
n er
Reg ierungen</w>
5 .
2 7</w>
sho ws</w>
Dr itt
ein deu
u ß</w>
gef unden</w>
ter ed</w>
bu te</w>
Über ein
M än
un ion</w>
ni em
rit ten</w>
f onds</w>
Ko so
kom pl
Lu x
ach es</w>
Bil d</w>
c ateg
intern ation
increas ing</w>
G egen
tra gs</w>
sub mitted</w>
ac ks</w>
wer k
Be wer
clo sed</w>
sh own</w>
schrift lich</w>
tiv eness</w>
n or</w>
Gesund heit</w>
bes it
Gemein schafts
Uni ver
sty le</w>
la st
li er</w>
tu al</w>
n a</w>
R E
J us
B ul
ung sp
bestimm te</w>
W ert</w>
do or</w>
t licher</w>
O k
Volk s
di ent</w>
li k</w>
wh ose</w>
Techn ologi
k rä
äußer st</w>
Jun e</w>
19 6
jo int</w>
W erk
4 .
Organ isation</w>
enlar gement</w>
off ice</w>
Famili e</w>
ho st
Erfahr ung</w>
Frank reich</w>
promo te</w>
A f
b auen</w>
t ete</w>
effec ts</w>
K ultur</w>
Inform ation</w>
Per son</w>
ver stehen</w>
hal f</w>
Hand els
mo d
form er</w>
dru ck
par li
ser ies</w>
pos sibility</w>
an ge</w>
f ru
acc ep
direc tion</w>
cover ed</w>
la y</w>
verb unden</w>
tig es</w>
as ked</w>
w ed</w>
wi der
Beh and
Ukra ine</w>
ver suchen</w>
opport unities</w>
M ul
R au
pre vious</w>
re duce</w>
asp ects</w>
beh ind</w>
Ar ticle</w>
öff net</w>
spru ch</w>
pres sure</w>
kur z</w>
einf a
frei en</w>
Ein führung</w>
sp ac
Ad res
at mosp
2 3
C ro
schn it
f eld</w>
Z entr
j our
Verein bar
d liche</w>
comp lex</w>
hin zu
Lu ft
veh ic
get ra
z in
Komm unik
fol ge</w>
wün schen</w>
An fang</w>
f ä
ch em
H igh
star k</w>
f lu
extern al</w>
respon se</w>
Um welt</w>
comp et
et ary</w>
A part
sug ges
gesam te</w>
stat us</w>
ges prochen</w>
organis ation</w>
ho hen</w>
gewähr leisten</w>
cre ation</w>
re views</w>
provi ding</w>
Kamp f</w>
set ting</w>
capac ity</w>
N i
tra vel</w>
moder n
dra w</w>
D V
l y
M ac
n ie</w>
wal k</w>
Mitgli ed</w>
f ish
au di
T age</w>
materi als</w>
u en</w>
w inn
besch äf
Ser ver</w>
pri ority</w>
Des ign</w>
sour ce</w>
Me tho
sch es</w>
Rat spräsi
opp el
zeh n</w>
ein hei
fund ing</w>
adv an
wis senschaf
ser ver</w>
Verk ehrs
Aus wahl</w>
comp re
Lis te</w>
reach ed</w>
Au ff
I S</w>
di e
A pp
Te am</w>
A gr
inter ess
comp uter</w>
sion s
plac es</w>
Proz ess</w>
ab el</w>
rou ght</w>
P C</w>
ph </w>
consider ed</w>
ass ess
ck e</w>
An zahl</w>
bel ieb
stell er</w>
lat est</w>
eb </w>
I P</w>
h ung</w>
H aus
prepar ed</w>
bew us
detail s</w>
sätz e</w>
mäß ig</w>
ren e
minis ter</w>
sch ütz
bet ra
b y
g ers</w>
cro ss
Aktiv itäten</w>
Her zen</w>
br ingt</w>
plac ed</w>
ges sen</w>
erk ennen</w>
Ma i</w>
ho he</w>
tr auen</w>
B usin
s ech
2 -
K an
ar tige</w>
spe ak</w>
ali en</w>
Soli dar
rema ins</w>
num er
writ ten</w>
hervor ra
Kommiss arin</w>
Um gebung</w>
industri al</w>
f ang
ah len</w>
al ing</w>
ev ent
finan z
s l
an gebo
T ro
qu ar
verk ehr</w>
fur ther
O st
Man agement</w>
se arch</w>
prot ect</w>
ab or
port ing</w>
g el</w>
ex change</w>
rach tens</w>
Jun i</w>
b ath
E rachtens</w>
n it
sup ported</w>
en heit</w>
Spra che</w>
selbst verständlich</w>
sicher heit</w>
S T
M är
Afri ca</w>
al b
fol low</w>
Bek ämpfung</w>
tic ally</w>
An aly
bestimm ten</w>
bil lion</w>
e ed
W ahl</w>
g te</w>
S am
st ar</w>
on nen</w>
gew öh
er zeu
sen si
kri min
er weiter
o il</w>
Centr al</w>
Kre di
fä hi
consu mer</w>
zwei te</w>
ci vil</w>
Fortsch ritte</w>
effici ent</w>
Con vention</w>
y l
ur g
C om
mar k</w>
produc ed</w>
Integr ation</w>
W e
ef ul
R ot
supp ly</w>
H inter
p ages</w>
1 ,
Wachst um</w>
con duc
inter net</w>
ex hi
setz ungen</w>
bili ties</w>
I D
stän digen</w>
3 00</w>
2 3</w>
Z ahl</w>
compre hen
mo bi
easi ly</w>
pl ant</w>
sourc en</w>
er ster</w>
pl om
j ün
D inge</w>
Produk tion</w>
Organ is
Industri e</w>
ch s</w>
tig ungs
in der
W ahr
em erk
b it</w>
indepen dent</w>
P lay
zwei tens</w>
an ia</w>
Gä ste</w>
commer cial</w>
M ad
et t</w>
sub st
Kap it
i tim
c ame</w>
bel ow</w>
soli dar
accept able</w>
De z
b st
4 5</w>
Gener al</w>
on y</w>
ek t</w>
y er</w>
func tion</w>
- T
fran zös
nei gh
ass istance</w>
I tal
H and</w>
ein schließlich</w>
add res
deci ded</w>
A P</w>
cre ating</w>
ber s</w>
B emüh
c ause</w>
Bestimm ungen</w>
simil ar</w>
W asser</w>
further more</w>
ic k</w>
f ten</w>
all ein</w>
b ad</w>
th ous
rel ax
sel f-
eigent lich</w>
Erklär ung</w>
le ge</w>
sol chen</w>
ausgest attet</w>
gi ves</w>
J av
q </w>
Me er</w>
m em
Vor aus
s yn
mo di
entsprech end</w>
zi p</w>
wei t
Prei se</w>
regul ations</w>
I n</w>
si bilities</w>
b ir
fron t</w>
geb aut</w>
Y or
di ver
sp rün
st au
e over</w>
wä l
Sp ain</w>
E ing
b ür
zeu ge</w>
Amster dam</w>
bei de</w>
ru le</w>
Syst ems</w>
Gä ste
Tran spar
Bri tish</w>
Barcel ona</w>
US -
Kon ta
egen heiten</w>
lei cht</w>
lea ve</w>
t le</w>
Y </w>
i on
th y</w>
los sen
rel i
Di alog</w>
syst eme</w>
B l
w ander
sag te</w>
pro duce</w>
eh e</w>
Öff ent
pop ular</w>
wur f</w>
üh m
Mehr heit</w>
Hand el</w>
U N</w>
agen da</w>
ver gangenen</w>
mo vement</w>
charac ter
ges ell
Posi tion</w>
auf genommen</w>
del l</w>
St elle</w>
A mend
sum mer</w>
mor eover</w>
pres ents</w>
möglich keiten</w>
alis m</w>
N ational</w>
lin k</w>
m ati
größ ten</w>
ex ec
so und</w>
einzi ge</w>
Koso vo</w>
st ability</w>
la un
Auf merk
199 8</w>
Vorsch riften</w>
em er
hol d</w>
our selves</w>
wer s</w>
H a
ill s</w>
M icro
Entschei dungen</w>
leg ung</w>
pre ci
ärk te</w>
Bil d
s ent</w>
h eben</w>
S tim
pleas ed</w>
ic es</w>
Dez ember</w>
Dec ember</w>
Am eri
leg t</w>
read ing</w>
li ge</w>
o ther
accommod ation</w>
eig net</w>
N atur</w>
g ün
restri c
An forderungen</w>
Gewal t</w>
P unkte</w>
ati v
zwei ten</w>
y ed</w>
m ers</w>
ad ver
S um
die jenigen</w>
prä sen
eh er</w>
F ak
disc ussion</w>
vis it
hin ter</w>
ge m</w>
N o
fre qu
legisl ative</w>
Jahrhunder t</w>
Ital y</w>
ap poin
ac ts</w>
Energi e
b rought</w>
rel ation</w>
P rü
mobi le</w>
f air
konz entri
re pe
M useum</w>
fri ed
L es
itt ing</w>
at z</w>
pur pose</w>
secon dly</w>
Aufmerk samkeit</w>
sh op</w>
ter t</w>
ss el</w>
Wes tern</w>
partn er
C D</w>
S onn
proper ty</w>
l auf
s cri
In sel</w>
f ishing</w>
po ver
Ma y</w>
char ge</w>
com promise</w>
ari es</w>
M ich
exp lo
men te</w>
fi x
mes sage</w>
fac il
op tion</w>
zi p
Sp iel</w>
voll en</w>
öffent liche</w>
ell a</w>
D et
O pf
G ed
Gef ahr</w>
H um
rel ation
Engl ish</w>
ä st
ac qu
Aut om
distri bution</w>
Er zeu
viol ence</w>
ni ed
dire k
ber ühm
e vi
con ference</w>
el op
Eig en
terran ean</w>
credi t</w>
e a</w>
g as</w>
S c
reg ards</w>
ges ellschaft</w>
pur su
activ ity</w>
spe ed</w>
let ter</w>
T it
H y
trä gen</w>
M y
i ken</w>
flo or</w>
reser v
ev al
C H
l ing
x is</w>
docum ent</w>
stat ement</w>
Projek te</w>
Investi tionen</w>
D or
S wi
nor m
im pres
wichtig er</w>
shi ps</w>
inter pre
c a.</w>
p ati
C ap
lar gest</w>
gn is</w>
Berei che</w>
proced ures</w>
berei t
En ergie</w>
c anc
b ig
s al
downlo ad</w>
k ein
step s</w>
schie den</w>
ur sprün
Gr enzen</w>
Agr ar
m m</w>
it ation</w>
is land</w>
eful ly</w>
ed ly</w>
contri bution</w>
stär ken</w>
fil m</w>
gi ving</w>
sit z</w>
Inst all
L at
europä ischer</w>
pay ment</w>
kon trol
fas sen</w>
Frei heit</w>
P ap
g t
neu er</w>
be zieh
it en</w>
dec lar
au ber
Dev elop
comp on
o ber
Mär z</w>
pro mot
instru ments</w>
fir stly</w>
gen heit</w>
ein gesetzt</w>
ek t
Bal k
En ter
Linu x</w>
mi d
äu ß
d .</w>
ru hi
Ma sch
atmosp here</w>
Kin der
zi eht</w>
in fra
transpar ency</w>
Mo d
wei s
get an</w>
om et
riteri en</w>
3 5</w>
s äm
Par ty</w>
is tischen</w>
Beschäf tigung</w>
Wettbewer b</w>
some times</w>
L auf
benö tigen</w>
L ehr
wen ige</w>
Stad t
Stand punkt</w>
t ell</w>
it em</w>
gewöh n
allow ed</w>
Fol gen</w>
g riff</w>
pro visions</w>
docum ents</w>
el te</w>
bewer tungen</w>
F el
kon nten</w>
bu ff
B re
E is
Af gh
Land wirtschaft</w>
dam age</w>
St unden</w>
Fischer ei
c riteri
fol gt</w>
le -
ev ol
por ate</w>
An frage</w>
ar ran
C am
ger ung</w>
ha fen</w>
conc ept</w>
st elle</w>
y ond</w>
dra ft</w>
Kü che</w>
R aum</w>
B undes
ec ken</w>
kei ts
lang fris
i ze</w>
un mittel
con tr
vide o</w>
S an
. 00</w>
durch geführt</w>
H ung
speci fic
im mer
Priv at
opp ing</w>
wahr schein
criteri a</w>
Janu ary</w>
2 5
dan ke</w>
C ity</w>
con st
in i</w>
Disk ussion</w>
G ot
Repub lic</w>
Medi terranean</w>
benef its</w>
au er</w>
u le</w>
St äd
aktu ellen</w>
sec tion</w>
tain ed</w>
mor gen</w>
os op
ill ed</w>
ef fort</w>
sch wer
j ähr
phy si
Wi der
B ot
expres s</w>
star ted</w>
gr an
interest ing</w>
ko sten</w>
erst ens</w>
k ing
M acht</w>
p ass</w>
größ te</w>
N et
Str and</w>
oper ating</w>
si x</w>
s n
S we
Unter such
Berich ts</w>
- in-
integr ated</w>
Portu g
Rah men
forder ung</w>
men sch
en a</w>
f alt</w>
L E
elec tri
c lassi
R ights</w>
an -
Präsi denten</w>
lieg enden</w>
Par k
jus ti
Ver änder
oll ar</w>
vari ety</w>
N ationen</w>
Bil dung</w>
ander s</w>
form ed</w>
equ al</w>
t ask</w>
Mar ch</w>
bec ame</w>
Transpar enz</w>
di gt</w>
cl ass</w>
hu ge</w>
St o
sat z
erwar ten</w>
be yond</w>
p ul
b all</w>
r at
Gäste bewertungen</w>
grow ing</w>
t es
stu dy</w>
iz ed</w>
hör en</w>
elec tron
l eh
numer ous</w>
kur z
Kun st
E M
Univer sit
Stu di
ye es</w>
begrü ße</w>
b el</w>
Hö he</w>
pos es</w>
el e</w>
Ber u
requ ire</w>
s us
ab ge
R A
Empf eh
mu t</w>
di men
erneu t</w>
solidar ity</w>
Schwi er
is on</w>
Grün den</w>
pro duz
techn ologi
sel n</w>
or row</w>
Tel ef
p aid</w>
t ou
D om
pover ty</w>
Präsi dentschaft</w>
ler nen</w>
gel ö
S -
M us
ser ve</w>
l ös
immedi ately</w>
Auff assung</w>
challeng es</w>
for ces</w>
transp or
St .</w>
elec tions</w>
ro und</w>
B rü
Mob il
dig ital</w>
emplo yees</w>
Web </w>
ein gesch
D -
colleag ues</w>
K ün
altern ative</w>
drück lich</w>
Ok tober</w>
Bed ürf
l am
Kom promis
dou ble</w>
ver gessen</w>
wieder hol
O per
gel ten</w>
t ac
ver öffent
wer t
avo id</w>
institu tion
w -
U p
i de</w>
jün g
Sa che</w>
Oc tober</w>
fre uen</w>
lab our</w>
zun ehmen
O S</w>
Fe der
ihr es</w>
por ary</w>
inst al
off izi
F er
Feh ler</w>
Fir ma</w>
S lo
b ahn
lei </w>
un sch</w>
ti ck
her aus
Janu ar</w>
re -
tom orrow</w>
it ali
Sin ne</w>
ep h
sta g</w>
Öffent lichkeit</w>
en ced</w>
nah e</w>
Kön ig
P a
N ation
lö sen</w>
tain s</w>
buil d</w>
re view</w>
dis crimin
aus reich
p ain
el ements</w>
ann ual</w>
An ti
W ahl
S il
so fort</w>
i -
er ungs
al te</w>
getra gen</w>
Ver tei
B lo
c ast
re in
j ahr
Reg eln</w>
consequ ences</w>
stand s</w>
ro ff
s la
D el
ell es</w>
Bemüh ungen</w>
sor g
Re form</w>
instru ment</w>
t an
Res er
dri ve</w>
Ex per
ge wäh
A ss
app lied</w>
An satz</w>
fahr t</w>
de cken</w>
contro ll
E rei
Servic es</w>
pro fi
il osop
P ass
= </w>
bei tragen</w>
F es
terror ism</w>
K ommission
st ark
sin n
Poli tik
offici al</w>
per man
Pal est
un ge</w>
fas st</w>
effici ency</w>
hät ten</w>
go es</w>
Bel gi
entsprech enden</w>
ch tung</w>
Yor k</w>
chan ged</w>
appe ar
li gt</w>
star ting</w>
lear n</w>
proc esses</w>
au t
S ou
hau pt</w>
ve au</w>
Bet ei
tr aum</w>
re ality</w>
to ol</w>
wer te</w>
füll t</w>
demokrati schen</w>
pro sp
Nor th</w>
ge worden</w>
to ols</w>
analy sis</w>
ast ern</w>
ma sch
Itali an</w>
& gt
&gt ;</w>
wir ken</w>
b ase</w>
conflic t</w>
b ru
C a
vot ing</w>
cur ren
typ es</w>
re k
r aten</w>
tal k</w>
ol er
high est</w>
il legal</w>
sit z
r .</w>
Lin ie</w>
d eten</w>
K raft</w>
se ek
t esten</w>
Fäl len</w>
bet rä
pub lic
ü t
behand elt</w>
verhin dern</w>
beg ren
G oo
C lub</w>
ex tra</w>
timm ung</w>
Span ish</w>
gre at
zeich nung</w>
bed ingt</w>
to -
199 7</w>
ser ved</w>
Milli ar
ch ing</w>
p ho
Dem oc
berücksich tigt</w>
congrat ulate</w>
requ ires</w>
einf ach
sch ool</w>
häu fig</w>
B on
happ y</w>
qu are</w>
worl d
At mosp
advan tage</w>
ätz e</w>
fol genden</w>
K ör
sa ying</w>
E C</w>
Qu al
con ver
c ou
Tages ordnung</w>
erfol gt</w>
K ra
Bür gern</w>
st able</w>
sch w
implement ed</w>
vo c
Frühst ück</w>
y a</w>
ne y</w>
ade qu
WT O</w>
P H
i ed</w>
prac tical</w>
K u
histor ical</w>
do m</w>
ß er</w>
C ha
spor ts</w>
sel y</w>
W h
t ag
Dru ck</w>
cru cial</w>
dig keiten</w>
Portug al</w>
sich ern</w>
D an
ell s</w>
si eren</w>
T or
beh alten</w>
off en
ik o</w>
apart ment</w>
Mon aten</w>
Develop ment</w>
da ily</w>
On lin
monit oring</w>
Jahr es
Musi k</w>
Ne w
trag s
Chr ist
du kt</w>
Bürger innen</w>
Chr isti
ver standen</w>
ung sh
lo wer</w>
fü gen</w>
organis ations</w>
o x
Syst em
per c
establ ish</w>
ut ting</w>
Deb ian</w>
sh ops</w>
Benutz er</w>
schö nen</w>
minim um</w>
r ely</w>
Fin an
i ef
off ering</w>
ver z
Bul g
de ath</w>
li ves</w>
alis ts</w>
occ a
ck ing</w>
N ord
suffici ent</w>
alis mus</w>
res taurants</w>
int el
tro ll
lo sen</w>
C enter</w>
ali zed</w>
zu min
rich tige</w>
f res
mo bili
zu führen</w>
l esen</w>
Ju ly</w>
Forsch ungs
Flug hafen</w>
cons ult
comprehen sive</w>
Sch lü
wahrschein lich</w>
ser i
Bil der</w>
inten si
ne ver
a der</w>
V ölk
zumin dest</w>
Behand lung</w>
au lt</w>
h .</w>
T at</w>
C re
Zi vil
Sel bst
sig keit</w>
d nis</w>
Ko ordin
Pro f
ver treten</w>
un er
Nach bar
li ghts</w>
b ran
end lich</w>
B ad</w>
wel ches</w>
stän dige</w>
far mers</w>
W est</w>
Änder ung</w>
L og
ide as</w>
st a</w>
person s</w>
c raft</w>
Lissab on</w>
_ </w>
cir cum
ish es</w>
off en</w>
ig es</w>
ver sucht</w>
Ber at
w est
über haupt</w>
t al</w>
Ma ß
Menschen rechts
T ab
wei st</w>
a war
Ta gen</w>
g yp
reduc tion</w>
dist ance</w>
et ten</w>
M P
s ales</w>
vi ert</w>
2 6</w>
b ot
exp ect</w>
car ry</w>
ab ri
&apos; ll</w>
ho ch</w>
Wis sen
verantwor tlich</w>
re ference</w>
S en
Ju gend
Dat eien</w>
bo x</w>
ut ely</w>
komm ens</w>
E L
Sp ei
1 -
ei lung</w>
do w</w>
other wise</w>
v an</w>
lau b
ri gh
0 -
techn ischen</w>
ter en</w>
V o
re t</w>
m ess
olog ischen</w>
N r.</w>
maxim um</w>
Ju li</w>
trä gt</w>
al ter</w>
get ary</w>
b emüh
ver wal
sec ure</w>
s ü
D ef
th eless</w>
k at
pro jek
N AT
as tic</w>
f örder
ämpf en</w>
i o</w>
eh em
2 8</w>
play ers</w>
si l
di sa
hel p
apart ments</w>
H oh
trans fer</w>
ander em</w>
rech ts</w>
con v
dom in
acc ession</w>
stru ktur</w>
außer halb</w>
Prei s
tig ten</w>
S icht</w>
us eful</w>
is es</w>
sor gung</w>
n ehm
s th
camp a
wa ste</w>
fi el
an ische</w>
an lage</w>
institu tional</w>
Finanz ierung</w>
beg in</w>
wh er
voll ständig</w>
ag ra
Ver gan
erklär t</w>
sign ed</w>
Atmosp häre</w>
be für
Afgh an
t eten</w>
br ing
fol gen</w>
sof ern</w>
cli ents</w>
publ ished</w>
Bas is</w>
letz te</w>
Arch it
Sch utz
F R</w>
streng th
Gr ö
lik ely</w>
Kon ferenz</w>
never theless</w>
erfolgrei ch</w>
or ed</w>
Beg inn</w>
um -
T u
An streng
conven i
Ver häl
vil lage</w>
bre chen</w>
Repub lik</w>
Austri a</w>
zusätz lich</w>
ex ac
deut schen</w>
prob ably</w>
neu es</w>
w ine</w>
er füllen</w>
technologi es</w>
pl ans</w>
ei l
al it
v ali
rel ating</w>
f ts
moder nen</w>
week s</w>
chall enge</w>
pa ar</w>
angem essen
long- term</w>
zeu g</w>
Urlau b</w>
schütz en</w>
tu de</w>
ko st
O -
s ent
M id
histor ic</w>
jewei ligen</w>
bes te</w>
st ets</w>
busin esses</w>
scienti fic</w>
world wide</w>
gesch affen</w>
caus ed</w>
D ro
Vergan genheit</w>
Best ell
n issen</w>
off ered</w>
führ te</w>
al one</w>
19 5
over all</w>
decis i
S port
Centr e</w>
Zentr al
ur ch</w>
gew esen</w>
j em
Aspek te</w>
y our
proz ess</w>
F lu
fri ends</w>
y m
gen ce</w>
Produk t
gem ents</w>
ke y
pas sen
A gent
empf eh
Erfahr ungen</w>
T ag
trit ts
mark s</w>
Angel egenheit</w>
M and
jo in</w>
ex tent</w>
verpflich tet</w>
Ver trauen</w>
is tic</w>
besu chen</w>
nat ur
zahl reichen</w>
K a
Min der
an ces</w>
n ice</w>
Wo chen</w>
Techn ologie</w>
Res sourcen</w>
F und</w>
Dat ei</w>
W erte</w>
P D
interest ed</w>
ti ken</w>
innov ation</w>
In halt</w>
po or</w>
Me er
Li efer
ar gum
m ier
zu setzen</w>
g ten</w>
sec tors</w>
ab schließend</w>
zei ten</w>
any thing</w>
lea ders</w>
bed au
cla im
men tion</w>
sech s</w>
brau cht</w>
accord ance</w>
M ün
sc ap
tn isse</w>
grei fen</w>
lo sigkeit</w>
histor ischen</w>
leg itim
wan ted</w>
k in
gen utzt</w>
Al t
ver ab
de gre
Berichterstat terin</w>
ne ws</w>
air port</w>
Presi dent
o de</w>
n ess
3 -
hand eln</w>
l ate</w>
Uni versity</w>
sc ale</w>
op tions</w>
Rechts vorschriften</w>
power s</w>
z .</w>
Direc tive</w>
en se</w>
strateg ic</w>
V illa</w>
visit ors</w>
ges p
kol l</w>
tiv al</w>
Heraus forderungen</w>
Aufenth alt</w>
c ut</w>
us sions</w>
di sche</w>
cer ti
co hes
metho ds</w>
Res taurants</w>
leist et</w>
J e
fl uss</w>
ausge zeichn
k n
eb y</w>
ish ment</w>
Itali en</w>
w onder
anno unc
besser e</w>
gen s</w>
Sch ritte</w>
sek tor</w>
Busin ess</w>
s ession</w>
li gung</w>
jus tice</w>
Funk tion</w>
erwar tet</w>
r at</w>
genu g</w>
t au
S af
all s</w>
c andi
erinn ern</w>
D oppel
ach tet</w>
zu künf
tur ned</w>
nied ri
rei se</w>
ra ised</w>
199 6</w>
C -
B lu
es ter</w>
Woh l
W ell
flä che</w>
mach ine</w>
conc entr
metho d</w>
S wis
Be weg
H ins
Adres se</w>
heu tigen</w>
at or
ament ary</w>
erst ör
l ess
Ges prä
betre ff
tran si
b and</w>
rän kt</w>
k ennen</w>
pop ul
gesch ütz
st ro
fin e</w>
k am
um en</w>
Arbeitn ehmer</w>
val u
Schwier igkeiten</w>
ph one</w>
du le</w>
chil d</w>
n ä
Person al</w>
appe ar</w>
ge wiesen</w>
ag ieren</w>
ban ks</w>
persön lichen</w>
Gesam t
process ing</w>
tra in</w>
P au
mo tion</w>
play er</w>
ch ance</w>
es ter
Partei en</w>
sp rü
aus schließlich</w>
impl ement</w>
Hins icht</w>
erlau bt</w>
- -</w>
Ber g
priv aten</w>
2 4
ch s
amerikan ischen</w>
elek tron
di plom
go t</w>
fiel ds</w>
R O</w>
en des</w>
king .com</w>
entschei den</w>
her en</w>
rel and</w>
Span ien</w>
w ser</w>
dou bt</w>
ber t</w>
c s</w>
Frank fur
D er</w>
wei ten</w>
reg ime</w>
res tor
ru ption</w>
moder ne</w>
automati sch</w>
adver ti
h op
influ ence</w>
a ver
vorgesch la
accep ted</w>
s eines</w>
sc ope</w>
Kun den
zeich nen</w>
bil den</w>
Reg ierungs
I reland</w>
Angel egenheiten</w>
inc or
Pra xis</w>
ex erc
archit ec
Dr .</w>
oper ate</w>
reas on
dem ands</w>
W est
en ze</w>
absol utely</w>
bar er</w>
C u
langu ages</w>
b is
hal ten
beg innen</w>
Chin ese</w>
ter e</w>
Au di
A -
bit ten</w>
In fra
Sch wer
a ys</w>
zusätz liche</w>
K al
über nehmen</w>
mon th</w>
lo st</w>
en gen</w>
re duz
6 .
aff ected</w>
eth n
S P
kl ein
em ail</w>
Vertre ter</w>
k it
Arbeitsplätz e</w>
W ein
begrü ßen</w>
Or d
wor ked</w>
w .</w>
I -
rel eas
Sta at</w>
bor ders</w>
erkenn ung</w>
k am</w>
ev ision</w>
sta aten</w>
Solidar ität</w>
aff t</w>
pe ac
n ern</w>
us ually</w>
nam ely</w>
inves tig
Reg is
adop t</w>
C al
ra h
he ad</w>
flexi ble</w>
tar get</w>
ci ties</w>
President -in-
sch wer</w>
con om
C op
k i</w>
neg ative</w>
Micro soft</w>
P ot
or ie</w>
Instru ment</w>
geh ö
ima ges</w>
E S</w>
k aum</w>
Fol ge</w>
Opf er</w>
A T</w>
eg el
ak tivi
initi atives</w>
S onder
President-in- Office</w>
Spiel er</w>
sel ben</w>
il leg
represent atives</w>
alis ed</w>
ver mei
ge kommen</w>
bewus st</w>
f ish</w>
ap preci
I F
Grupp en</w>
tr ying</w>
em o
moun tain</w>
op ening</w>
Gebäu de</w>
Auf gaben</w>
Eig ent
Ein richtung</w>
möglich erweise</w>
C amp
Con ference</w>
separ ate</w>
E conom
B or
del eg
nach ten</w>
j </w>
k rise</w>
ur ance</w>
kon om
re forms</w>
si ehe</w>
si vely</w>
n ö
P P
bi tion</w>
co -
Boo king.com</w>
occ up
allgem einen</w>
pris es</w>
inten ded</w>
E v
Con stitu
An nahme</w>
G et
l auf</w>
us h
conf ig
W unsch</w>
zu l
rel ease</w>
größ ere</w>
So ci
gre en</w>
Ihr es</w>
aktu elle</w>
Kri eg</w>
Fri eden</w>
ab kommen</w>
di enst
frei e</w>
m and
Afghan istan</w>
es ischen</w>
inter es
n ationale</w>
struc tural</w>
r ats</w>
Organis ationen</w>
stoff e</w>
vorgesch lagen</w>
cohes ion</w>
Ö sterrei
lin ien</w>
expres sed</w>
T her
call s</w>
um fang
un employment</w>
committ ed</w>
O N
m bo
fern er</w>
milit är
R a
j ahr</w>
impro ved</w>
Verf assung</w>
Ar mut</w>
sel ection</w>
Milliar den</w>
m in</w>
eindeu tig</w>
k il
lei ten</w>
par king</w>
Sit zung</w>
en ha
v ital</w>
um s
P en
res i
dar stellt</w>
prü ft</w>
er fahren</w>
Er n
gel ei
sch o
sch ung</w>
H ä
roff enen</w>
Syst eme</w>
N icht
zi g</w>
w r
R ec
re ck
cle an</w>
dan ach</w>
th ought</w>
administr ation</w>
cri tical</w>
steh enden</w>
2 9</w>
for ced</w>
increas ingly</w>
Verpflich tungen</w>
tem per
tal king</w>
-L CB-</w>
p il
G ei
contrac t</w>
D im
pro per</w>
sti eg</w>
Anstreng ungen</w>
min ute</w>
A K
M ess
su itable</w>
he al
glau ben</w>
main tain</w>
appro ved</w>
stärk er</w>
found ed</w>
I ch</w>
main ly</w>
ail s</w>
gebi et</w>
u n</w>
gen der</w>
st ress</w>
ri ffen</w>
äst in
ex </w>
Mittel me
us w.</w>
gel eist
S at
hear d</w>
anti -
ben utzt</w>
ma p</w>
Über wach
relation ship</w>
alis iert</w>
L ab
den s</w>
ep ing</w>
stu di
confi dence</w>
Re ak
Kün st
sig n</w>
itali en
alis ten</w>
cri pt</w>
d ete</w>
al tet</w>
Proto koll</w>
install ation</w>
buff et</w>
- F
grupp e</w>
Sch n
la ws</w>
comm ents</w>
dest ens</w>
get ting</w>
un bedingt</w>
ilosop h
K riterien</w>
ho ben</w>
f ying</w>
ig ran
ig t</w>
ist ent</w>
administr ative</w>
curren cy</w>
M om
l ad
Kar te</w>
e- mail</w>
™ </w>
führ ten</w>
aus ger
bor n</w>
min destens</w>
m ming</w>
run ning</w>
j eg
7 5</w>
ori enti
F alle</w>
G N
R ats
P ati
he av
fig ur
emis sions</w>
coun t</w>
competi tive</w>
ru s</w>
ch in
ei l</w>
Amend ment</w>
Zus timmung</w>
vic tim
au p
Ob jek
ad vis
entsp richt</w>
vir tu
R en
Sü d
überzeu gt</w>
nach fol
V ir
S ign
Proz ent</w>
Sec urity</w>
verein bar
plann ing</w>
pri orities</w>
W ahlen</w>
gestell ten</w>
l aufen</w>
ck er</w>
mor ning</w>
reduc ed</w>
V oll
s itting</w>
Dis tri
Entschließ ungsan
P l
conclu sion</w>
eu ern</w>
ti ous</w>
entsprech ende</w>
sti gen</w>
vor gelegt</w>
so bald</w>
er leben</w>
ne ar
sa chen</w>
ben utzen</w>
b ung</w>
un den
Ira q</w>
s agt</w>
schön e</w>
b lu
tro tz
deci de</w>
rei cht</w>
c tion</w>
3 1</w>
ung st
sel ect</w>
si m
ati schen</w>
prac tic
auf s
mit ten</w>
zwei fel
N a
Vereinbar ung</w>
st abil
m ember
deli very</w>
U K</w>
circum stances</w>
3 2</w>
ho ffen</w>
industri e</w>
C z
c .</w>
cri tic
v ements</w>
Palest in
automati cally</w>
Kredi t
ali ties</w>
del ines</w>
U R
p ts
R ed
ens uring</w>
Leu te</w>
specific ally</w>
infra structure</w>
T sch
Veranst al
H ause</w>
Funk tionen</w>
ali zation</w>
Goo gle</w>
qui et</w>
S Q
D I
P S</w>
ori en</w>
traff ic</w>
wesent lich</w>
olog ische</w>
Terror ismus</w>
glei che</w>
ch ann
M c
pres er
sp ann
ge zeigt</w>
subst anti
go al</w>
au ßer</w>
kar te</w>
agri culture</w>
i ties</w>
fäl le</w>
correc t</w>
C li
erwäh nt</w>
Verwal tung</w>
l ern</w>
finan cing</w>
sy ch
struc tures</w>
deck t</w>
k ü
bil ater
ens icht
g ames</w>
eng ine
gel egen</w>
ver tre
Binnen markt</w>
drin gend</w>
glob alen</w>
bi a</w>
hoch wer
Partei </w>
bo t</w>
famili es</w>
f le
nor mal</w>
sicher lich</w>
k ers</w>
ä te</w>
Ide e</w>
a i</w>
An erkennung</w>
Gipf el</w>
-R CB-</w>
Al p
P la
D en
victim s</w>
# </w>
u ten</w>
cri me</w>
Rus sian</w>
B ade
ge grün
speak ing</w>
ver lässi
men u</w>
i p
contri bute</w>
der t</w>
Aussch uß</w>
sup ports</w>
et ings</w>
Stell ung
st ab
Produk tions
Haush alt</w>
2 .</w>
unterschied lichen</w>
si zed</w>
ra il
sp richt</w>
get roffen</w>
i or</w>
O S
der zei
i ö
Best and
t abled</w>
b es</w>
exten sive</w>
Agen da</w>
be qu
O N</w>
sh opping</w>
your self</w>
mp tion</w>
bil ität</w>
effec tively</w>
er lei</w>
ul tim
sich ten</w>
berücksich tigen</w>
St ar</w>
off ensicht
exp ected</w>
Z er
sour ces</w>
be ziehen</w>
ar a</w>
t em</w>
trotz dem</w>
M ex
detail ed</w>
vor her
Regi on
prec is
encour age</w>
N ations</w>
tain ing</w>
bour g</w>
lich ung</w>
stim me</w>
E lek
N ich
kon stru
et er
particip ation</w>
h und
geb il
us h</w>
Kl ein
cross -
Stabil ität</w>
zul etzt</w>
electron ic</w>
Er d
ie f</w>
pho to</w>
sa ys</w>
hin weisen</w>
wh at
O sten</w>
per spec
phot ograph
pri m
entwick lung</w>
Re formen</w>
u tive</w>
gen annt</w>
introduc ed</w>
P L</w>
Sof t
schrei ben</w>
ha ft</w>
M S</w>
pl us</w>
Comp uter</w>
gerech t</w>
Su per
deli ver
erk annt</w>
im in
b ul
Produk ten</w>
B ahn
ander erseits</w>
Qual itäts
stän de</w>
stän den</w>
com fort</w>
ri </w>
ass ungs
20 20</w>
Technologi en</w>
stu dents</w>
es tic</w>
end ed</w>
under standing</w>
In halte</w>
Vor teile</w>
M el
Do wnlo
ex ist</w>
schnit t</w>
precis ely</w>
A gre
defin ed</w>
as si
° </w>
prot ected</w>
Char ak
verfüg bar</w>
a str
techn ische</w>
eg u
di ar
Mitt eilung</w>
c in
ain ed</w>
Vol k</w>
fiz ierung</w>
reib ung</w>
ge -
gew o
f ast
icht sh
ch ern</w>
Air port</w>
su s</w>
ent weder</w>
s an
mehr eren</w>
S eh
transpar ent</w>
ger ungen</w>
ris ks</w>
akzep tieren</w>
7 -
pas sen</w>
so -
Fu ß
gar den</w>
� </w>
re member</w>
dat ab
feat ure</w>
Durch führung</w>
r uss
Im mobili
o .</w>
H off
wh om</w>
power ful</w>
partner ship</w>
di vi
bu ch</w>
N ahr
B emerk
disc ussions</w>
ä den</w>
gener ation</w>
disc uss</w>
erzi elt</w>
Tran s
Schl ussel
ch ec
ti l
bestimm t</w>
sicher zustellen</w>
O ly
aim ed</w>
lar ger</w>
u g
func tions</w>
k o</w>
an geb
develop ments</w>
Kri eg
thous ands</w>
E T
k al
komm enden</w>
da gegen</w>
st -
re vol
ar ischen</w>
rech t
hil fen</w>
an nen</w>
Pro dukt</w>
b a</w>
anim als</w>
Enter prise</w>
but ed</w>
ar tigen</w>
ther ap
te ach
le av
o di
rech ten</w>
f is
discuss ed</w>
G ast
besteh enden</w>
af ter
bud getary</w>
D ol
ali gen</w>
sch ar
ak tiv</w>
ut y</w>
ün f
E-Ma il</w>
ati sti
gew is
5- 0
assess ment</w>
n ütz
ge ändert</w>
Ven e
pp ing</w>
S up
w ood</w>
d ated</w>
Indi a</w>
B S
man ner</w>
besonder en</w>
refer red</w>
ch ter</w>
dar unter</w>
Inv est
ger ing
gelö st</w>
beg an</w>
r ural</w>
Ab sch
M ach
Wettbewerbs fähigkeit</w>
avi g
meas ure</w>
gegenwär tig</w>
man aged</w>
Besu ch</w>
exc ep
exac tly</w>
h our</w>
al og
and a</w>
st ers</w>
K ateg
Lux em
reg ular</w>
c lu
j ene</w>
Stra ße</w>
fel low</w>
st ated</w>
f el</w>
he ad
Co de</w>
läu ft</w>
ear lier</w>
lin ked</w>
posi tions</w>
ci a</w>
7 .
j ur
gan gs
Europ e
inn er</w>
g liche</w>
is tische</w>
Oly mp
T y
K no
ru fen</w>
Swis s</w>
entr y</w>
ar k</w>
coll ection</w>
Onlin e-
C D
n ungen</w>
enter prises</w>
as ks</w>
becom ing</w>
um gesetzt</w>
ati vely</w>
ev ening</w>
4 00</w>
har d
conv inc
sch lä
a des</w>
H altung</w>
Bar ro
lie be</w>
D ub
poli ce</w>
n ehmer</w>
wr ong</w>
er land</w>
introduc tion</w>
re presents</w>
p u
bet rach
li mit</w>
ic a</w>
es tim
Ch ance</w>
S on
wei te</w>
St ation</w>
B ank
adequ ate</w>
stat tung</w>
E mis
ar m
unk ten</w>
be darf</w>
Sek tor</w>
it z
Medi en</w>
geb enen</w>
dig it
Anwen dungen</w>
stre et</w>
el se</w>
erg än
spezi ell</w>
ch mal</w>
tra v
wh ite</w>
ch ter
Bel ar
op ened</w>
finanzi ellen</w>
Nation al
s eiten</w>
I denti
sp r
lo y
pur poses</w>
Gel d
notwen digen</w>
war ten</w>
Ch anc
R efer
199 5</w>
ma ß
Währ ungs
A sia</w>
erg reifen</w>
Au gen</w>
we ap
G est
fest gelegt</w>
re fu
Verbrau cher
er füllt</w>
vermei den</w>
zei chen</w>
imm ern</w>
form at</w>
D ollar</w>
f ei
respon d</w>
ob viously</w>
sh e
Gr and</w>
l ass</w>
satis fac
wer ke</w>
w ants</w>
gener ally</w>
&apos; re</w>
gen cy</w>
6 -
än den</w>
vo ice</w>
sel ected</w>
cel eb
mo del
clo sely</w>
c an
discrimin ation</w>
Gri ech
ri d</w>
V ic
in ci
impro ving</w>
Somm er</w>
scre en</w>
spiel e</w>
Ver b
geleg ten</w>
säm tliche</w>
H T
ter min
il fe</w>
Z </w>
inform ieren</w>
streng then</w>
consider able</w>
in come</w>
an ci
en ster</w>
ichtlin ien</w>
Co sta</w>
du m</w>
wor th</w>
imm igration</w>
ö st
F ac
tr ust</w>
medi cal</w>
sup porting</w>
tour ist</w>
Ein richtungen</w>
disp lay</w>
gui delines</w>
S ite</w>
Zei chen</w>
je derzeit</w>
par agra
0 1</w>
grupp en</w>
Feri en
wel cher</w>
wor ten</w>
sa ve</w>
füh l</w>
verfol gen</w>
unabhängi g</w>
über nachten</w>
P lan</w>
Pro c
Gar anti
P S
N ah
rü cken</w>
swi mming</w>
ehr te</w>
Frankfur t</w>
e en</w>
ens wür
kra ft
tra ck</w>
fur n
Fl or
nachfol gend</w>
Stand ards</w>
berei tet</w>
NAT O</w>
lo ve</w>
teil weise</w>
pro por
qu anti
z entrum</w>
ge ber</w>
b ab
Mon ate</w>
St ro
v ac
y es</w>
fo ot
de ep
Aus bildung</w>
le bt</w>
bro ad
Konta kt</w>
any one</w>
rec ord</w>
M ol
ver lei
I L
eu ch</w>
Su che</w>
war m</w>
re present</w>
Al tern
An spruch</w>
S im
dr am
wal king</w>
ander es</w>
Lei t
W a
cont in
exper ts</w>
de bt</w>
br it
g as
T em
Ver trags</w>
en det</w>
play ed</w>
ver si
Ein fluss</w>
qu es</w>
ge eignet</w>
tig keiten</w>
st ein</w>
ob ach
cam era</w>
comp ens
ges und
st es</w>
gra du
voll er</w>
program s</w>
in side</w>
politi scher</w>
Geor gi
p r
D ig
oper ations</w>
sp end</w>
haf ten</w>
ange zeigt</w>
Vor berei
ain s</w>
gen e
Swi tz
L am
1 50</w>
mark eting</w>
vis i
tr ation</w>
erzi elen</w>
ad ju
stau sch</w>
acc es
Tur k
so- called</w>
ac ci
happ en</w>
un less</w>
Geg ens
S ant
follow ed</w>
ten de</w>
u de</w>
über schrei
erhö hen</w>
competi tiveness</w>
en land</w>
S yn
kl are</w>
tra dition</w>
rei sen</w>
Agre ement</w>
wär en</w>
jewei ls</w>
ver ring
Klima wand
Kun st</w>
net works</w>
Viel falt</w>
verbesser t</w>
Kin dern</w>
einger ichtet</w>
L ie
Konz ept</w>
ent schieden</w>
f oo
K ris
Mid dle</w>
b a
sch lagen</w>
de dic
Betrieb s
ungs -</w>
gew ün
coordin ation</w>
tä glich</w>
be zo
ci ans</w>
fac ing</w>
brit ann
k ap
un e</w>
uli eren</w>
Gre ece</w>
land scap
pro vision</w>
n on
19 4
sc en
bro ad</w>
ec t
ter race</w>
H or
fa vo
lig ten</w>
funktion iert</w>
de fic
p aper</w>
z ept
Instru mente</w>
jec ted</w>
pri or</w>
des wegen</w>
tour ism</w>
fo li
is tics</w>
lux ur
degre e</w>
T ermin
connec ted</w>
h aus</w>
ä ten</w>
Famili en
gel angen</w>
As soci
b ü
exclu sive</w>
Kenn tnis</w>
f ant
s anc
lau t</w>
fäl lt</w>
spe ech</w>
staat lichen</w>
­ </w>
t our</w>
u si
en g</w>
Sit z
verb rei
w and</w>
N G
Berich te</w>
hon our
2 6
Schl af
presi dency</w>
Komp on
tel eph
t y
eu erung</w>
and ing</w>
el ement</w>
Pro t
der ungen</w>
vor gesehen</w>
Tä tigkeit</w>
z z
compon ents</w>
thin king</w>
en falls</w>
Verwal tungs
eg et
Ak tion
spi elt</w>
aus drücklich</w>
frei heit</w>
Spra chen</w>
Christi an</w>
re fer</w>
er stellt</w>
pa th</w>
n is
0 s</w>
f and</w>
2 ,
Lebens mittel
bet onen</w>
2 8
Br ussel
acc ur
For derung</w>
ch ron
Bo ard</w>
auf merk
ru p
B ran
E l</w>
t led</w>
cli ent</w>
an spru
profi tieren</w>
co s
Pub lic</w>
parli amentary</w>
Famili en</w>
Initi ativen</w>
fish eries</w>
schaf tlichen</w>
Veränder ungen</w>
win ter</w>
K rä
D eleg
Switz erland</w>
p hr
V il
bek ann
rich tet</w>
b on
Verein ten</w>
P len
Soft war
g st</w>
ap par
Men ge</w>
Web seite</w>
o te</w>
sum mit</w>
Ab schluss</w>
de aling</w>
zentr ale</w>
Stim me</w>
lu ß</w>
em in
ori z
proper ly</w>
F lexi
Schwei z</w>
su m</w>
Abgeordn ete</w>
exis ten
purch ase</w>
We ge</w>
gan g
tiv ity</w>
kon ferenz</w>
Groß britann
rich tigen</w>
Rom a</w>
bo dies</w>
ge eign
lich em</w>
m ischen</w>
Po licy</w>
Brussel s</w>
Gr enz
ten d</w>
ju d
sti ge</w>
ger t</w>
play ing</w>
oh n
Ro oms</w>
dra wn</w>
L ag
we ak
end or
er stellen</w>
Fre m
E AD
man chmal</w>
Li z
ho od</w>
it ate</w>
Mitgliedsta at</w>
K il
att le</w>
C A
enti rely</w>
St and</w>
0 er</w>
lat er
consider ation</w>
ö konom
spir it</w>
besch lossen</w>
buil dings</w>
pres ence</w>
difficul ties</w>
M ut
möglich st</w>
M er
bath room</w>
ag no
M eter</w>
Innov ation</w>
E L</w>
st atis
Leist ungen</w>
Au str
auth ority</w>
dest ro
j et
part ment</w>
cons ul
poli tics</w>
ati k</w>
ge fordert</w>
h anden</w>
öff nen</w>
flexi bility</w>
ho sp
aver age</w>
w in</w>
be achten</w>
Eng agement</w>
Ira k</w>
konkre te</w>
Tran spor
nei ther</w>
ge halten</w>
mechan is
Sch w
er leich
Mo dell</w>
Cz ech</w>
leist ung</w>
Po st
sp rech
anim al</w>
mög liche</w>
zäh len</w>
pl ants</w>
pl ätze</w>
em erg
sti t
Aus gaben</w>
par all
Beschäf tigungs
Pol and</w>
ordin ary</w>
enn a</w>
typ ical</w>
iz ation</w>
sth af
S ach
app lies</w>
Febru ar</w>
ti se</w>
Febru ary</w>
at ti
dar aus</w>
H u
eleg ant</w>
coun ter
Se a</w>
f our
Ver gleich</w>
woll te</w>
finanzi elle</w>
zu gleich</w>
et c.</w>
sich t
ver trau
P T</w>
durch aus</w>
rei s</w>
Install ation</w>
inform ed</w>
ut t
las h</w>
Dien ste</w>
enor m
fix ed</w>
enha gen</w>
ro man
fre ue</w>
ästin ens
bu y</w>
gen ü
K ing
dom estic</w>
P C
cre te</w>
r al</w>
Stand ard</w>
s and
actu al</w>
Z y
20 11</w>
Heraus forderung</w>
fail ure</w>
own ed</w>
betrach tet</w>
gew innen</w>
gehö ri
perman ent</w>
spi eg
tig te</w>
E G
ör de</w>
ar ten</w>
Tei le</w>
se em</w>
fres h</w>
grund sätz
Kra ft
Z eiten</w>
eng l
fl ation</w>
Rats vor
gi gen</w>
he ar</w>
O L
differ ence</w>
At lan
Ver stän
Ein wander
Währ ung</w>
est ed</w>
E mp
Gre en</w>
etz ung</w>
Musi k
Arbei ten</w>
met res</w>
A sy
lok alen</w>
lei tung</w>
konzentri eren</w>
it ems</w>
An gaben</w>
ec </w>
vehic les</w>
vor handen</w>
komp lex
Zei traum</w>
ab ilities</w>
do wn
Sal z
gewähr leistet</w>
über prüfen</w>
benö tigt</w>
Bei tritt</w>
Mul ti
Gesch ä
purch as
M echan
adv anced</w>
s ul
me etings</w>
Mi o.</w>
näch ste</w>
DV D</w>
y ester
de -
&#124 ;
car ds</w>
reduc ing</w>
sto ck</w>
Ver bin
comb at</w>
prü fung</w>
dan ger
for d</w>
cor e</w>
Gebi eten</w>
Haus es</w>
appe ars</w>
Kat astro
Mit te</w>
promot ing</w>
w on
Dim en
L e</w>
u fen</w>
un ten</w>
adv ant
Gar ten</w>
unterschied liche</w>
veröffent licht</w>
p ap
S ing
wen igen</w>
ha fte</w>
dar stellen</w>
er b
9 .
comp ati
tra k
w ent</w>
St ärk
be auf
br auch</w>
bel iev
v ul
erfol gen</w>
star ke</w>
ma ßen</w>
An trag</w>
D P</w>
experi enced</w>
bes i
Program ms</w>
appro xim
erklär en</w>
re d
ge ograph
P s</w>
Fil m</w>
Ein igung</w>
mon etary</w>
w om
Besu cher</w>
zah lt</w>
Flü cht
angebo ten</w>
ju di
di sh</w>
Dru ck
W ol
mo bil
f la
g lie
tä tig</w>
zep tion</w>
aim s</w>
get re
So cial</w>
practic es</w>
ent stehen</w>
auth or
A chtung</w>
ima g
seri ously</w>
Parlam ent
asp ect</w>
Bei tritts
implement ing</w>
Konf lik
führ er</w>
gegen sei
m icro
M un
persön lich</w>
mach ines</w>
num bers</w>
pleas ant</w>
er scheint</w>
dis cover</w>
auf t</w>
ed s</w>
rene w
ein gehen</w>
samm lung</w>
thre at</w>
kultur ellen</w>
h inter
humanit arian</w>
n ation</w>
For um</w>
führ enden</w>
spra ch
Regel ung</w>
gegrün det</w>
offensicht lich</w>
yp e</w>
S .</w>
simp li
T im
differ ences</w>
Stellung nahme</w>
T au
Re de</w>
For derungen</w>
Stat us</w>
l eng
sa w</w>
fü gt</w>
viel fäl
so weit</w>
verur s
teleph one</w>
Zwei fel</w>
ti ver</w>
Ph ot
for get</w>
s un
Ein haltung</w>
dor f</w>
easi er</w>
ic o</w>
k aufen</w>
becom es</w>
leist ungen</w>
wonder ful</w>
sup pl
Belar us</w>
dec or
def ence</w>
Zw eck</w>
be antwor
disku tieren</w>
grei f
establ ishment</w>
a dem
Spe zial
d ank</w>
orig in</w>
S ee</w>
Wor te</w>
medi um-
vern ünf
L it
absol ut</w>
I B
geleist et</w>
lich erweise</w>
H om
s li
gesch rieben</w>
hous es</w>
Q </w>
schwieri g</w>
à </w>
oo m</w>
über all</w>
ack no
fre ut</w>
P il
gesch ehen</w>
member ship</w>
hand el</w>
um in
n ieder
saf egu
C at
ga ve</w>
au d</w>
ell ed</w>
ec ke</w>
pen sion</w>
Har mon
bal anced</w>
stat ements</w>
Land wir
da cht</w>
Jahrhunder ts</w>
k oh
hr en</w>
l le</w>
ber icht</w>
Jahr zeh
kun fts
0 ,
reason able</w>
li en</w>
op position</w>
en -</w>
ge k
produc ers</w>
ein iger</w>
rel ax</w>
attemp t</w>
Apart ments</w>
y s
ern sthaf
N ame</w>
zäh lt</w>
wa gen</w>
Kom fort</w>
sen s
Her stellung</w>
Komp et
L -
am eter</w>
W ar</w>
prin t</w>
gi g</w>
D S
e be</w>
F onds</w>
o o</w>
s a</w>
zeu gen</w>
dam als</w>
gelei tet</w>
h im
ori al</w>
yester day</w>
3 3</w>
ph ase</w>
econom ies</w>
G as
l ten</w>
gest alten</w>
Auf nahme</w>
d .
con crete</w>
I ma
m äch
will kommen</w>
f und</w>
wir kt</w>
qu alität</w>
Sp rach
seas on</w>
f s</w>
at ta
pic ture</w>
gem ü
tri eb
Joh n</w>
Analy se</w>
tiv ität</w>
c ra
crimin al</w>
end gül
con dition</w>
continu ed</w>
o w
Ar gum
eh ol
V ari
con dem
am ing</w>
Disk us
S cript</w>
D as</w>
wach sen
ess or</w>
ausge wäh
O T
stu dies</w>
consu mption</w>
quali fiz
B ru
Tran sport</w>
cle an
Mil it
umfas st</w>
ein erseits</w>
Prior itäten</w>
sp unkt</w>
charac ter</w>
g ain</w>
chan ging</w>
9 5</w>
² </w>
my self</w>
her unter
gra de</w>
adop tion</w>
transl ation</w>
em bly</w>
d uty</w>
Aspek t</w>
Ch am
sus p
Seh enswür
uni vers
gew icht</w>
Terr asse</w>
associ ated</w>
b ahn</w>
evi dence</w>
posi tiv</w>
fri eden</w>
ogra f
Sor ge</w>
medi c
verfol gt</w>
car efully</w>
Fried ens
A M
ent sch
cl ari
li ons</w>
lea der</w>
pre fer
Ges ell
model s</w>
s le
cal cul
f low</w>
danger ous</w>
x -
det ail</w>
gew and
Kir che</w>
Österrei ch</w>
fest stellen</w>
p .
il -
tra ding</w>
phr ase</w>
ah ead</w>
ö k
R um
recogn ition</w>
Dokum ent</w>
region alen</w>
kl ass
car s</w>
fin ance</w>
fu n</w>
viel mehr</w>
categ ories</w>
EAD S</w>
9 9</w>
ver lassen</w>
n utz
Bed ar
z ö
rä ume</w>
ür en</w>
V ier
wei ght</w>
zeu g
avail ability</w>
ass es</w>
pas st</w>
Entwick lungen</w>
G od</w>
agen cies</w>
mitt els</w>
happ ened</w>
th -
anges prochen</w>
Europe ans</w>
call ing</w>
Kommunik ation</w>
un acceptable</w>
Ir ish</w>
genu ine</w>
Pak istan</w>
woh ner</w>
her zlich</w>
Hinter grund</w>
g .</w>
krä fte</w>
Fern seh
or ders</w>
des er
Hum an</w>
Minis ter
guarant ees</w>
in form</w>
A P
Isra el
wa it</w>
aussch uss</w>
impro vement</w>
ati n</w>
beh avi
peac eful</w>
Arbeits losigkeit</w>
fe el
Ver sch
ho t</w>
Sp a</w>
aus gewo
jähri gen</w>
Stärk ung</w>
immedi ate</w>
vic es</w>
p unkte</w>
combin ation</w>
s ets</w>
lie ßen</w>
inst ance</w>
g utes</w>
Econom ic</w>
niem and</w>
ier ter</w>
contr ary</w>
demokrati sche</w>
techn i
zu g
ein geb
ins urance</w>
2 4-
i .
an gt</w>
Universit ät</w>
ra ise</w>
Her steller</w>
weiter er</w>
En viron
intro duce</w>
Großbritann ien</w>
or g</w>
ut ed</w>
t aus
im possible</w>
garanti ert</w>
übri gen</w>
l -
Gemein samen</w>
I R
son st</w>
ru h
at z
in struc
str ong
ad ul
Pol en</w>
Pak et</w>
ahr en</w>
mi x
cour ses</w>
lear ning</w>
natur ally</w>
Partner schaft</w>
B rit
pre -
Funk tion
Ab end</w>
shar ed</w>
wi eg
T un
sp ent</w>
dr itt
ro ll
Gener al
Les ung</w>
{ </w>
il lu
All gem
Kon fer
C i
p sych
einfa che</w>
b ing</w>
brei te</w>
Bü ro
compar ed</w>
coll abor
hin gewiesen</w>
8 .
Poli zei
Pri me</w>
spezi elle</w>
propos e</w>
Viel zahl</w>
ier e</w>
Au gen
on e-
him self</w>
Fo und
rän ken</w>
e ß</w>
mit einander</w>
Rechn ung</w>
Afri ka</w>
attrac tive</w>
gegenwär tigen</w>
M ik
govern mental</w>
Barro so</w>
a .
Au to</w>
unterstütz e</w>
20 13</w>
is ine</w>
co ff
stär kt</w>
ich ts
ärk ten</w>
schi ed</w>
Dis krimin
sensi tive</w>
Ar ten</w>
D u</w>
ein geführt</w>
t old</w>
el ection</w>
wa iting</w>
reli able</w>
Sto ck
Associ ation</w>
Problem en</w>
führ ungen</w>
rü st
hand s</w>
combin ed</w>
Bedürf nisse</w>
announc ed</w>
w ishes</w>
Ges etz</w>
qu alit
W issen</w>
vol un
umfas sende</w>
sp ending</w>
ek te</w>
fig ures</w>
be ds</w>
pos sibilities</w>
Sehenswür digkeiten</w>
eh mer
jour n
se ek</w>
tru ly</w>
ou l
ein setzen</w>
exhi bition</w>
hau pts
refu ge
R ein
clo ser</w>
er hält</w>
Nahr ungs
ei lt</w>
King dom</w>
ph en
relig ious</w>
N u
r itt
z erstör
Ir land</w>
Geschäfts ordnung</w>
verk ehr
y al</w>
hal tet</w>
Prior ität</w>
l uss</w>
descri bed</w>
For men</w>
allow ing</w>
z ing</w>
grö ßer
su che</w>
continu es</w>
cont em
K r
Überwach ung</w>
absol ute</w>
strong ly</w>
empfeh len</w>
particip ate</w>
fe ar</w>
F und
fe der
adv ance</w>
defin ition</w>
groß es</w>
9 8</w>
el ected</w>
el a</w>
Reg el</w>
it z</w>
aufmerk sam</w>
s ort</w>
as yl
t asks</w>
A si
lös ung</w>
d in
ff s</w>
französ ischen</w>
t inu
be ar</w>
s letter</w>
zu frieden</w>
an sch
kit chen</w>
kein erlei</w>
Ger ichtsh
Fu ß</w>
resp ective</w>
vor liegenden</w>
Mom ent</w>
reserv ation</w>
erforder lichen</w>
pass ed</w>
en ables</w>
SQ L</w>
Zu stän
St ar
expen di
Elem ente</w>
ad ed</w>
IS O</w>
geschütz t</w>
T H
ob tain</w>
si des</w>
Betrieb </w>
y e</w>
W ech
m .</w>
einfa chen</w>
di um</w>
F inn
distri ct</w>
br and</w>
pack ages</w>
St or
s outh</w>
no ti
cor respon
regis tered</w>
datab ase</w>
Pf lan
Brü ssel</w>
gro unds</w>
W ün
Afri can</w>
Des ign
campa ign</w>
fol gende</w>
A S</w>
ac i
adju st
po l</w>
bestä tigt</w>
Bewer tung</w>
go sla
ü r</w>
ausreich end</w>
isch en
Ide en</w>
char ged</w>
f are</w>
zu vor</w>
pp er</w>
am en
Jus tice</w>
mo ving</w>
Am bi
be zeichnet</w>
urg ent</w>
betei ligt</w>
paragra ph</w>
s eg
but ton</w>
M ann</w>
Indi en</w>
Fortsch ritt</w>
anci ent</w>
spar tn
Sin n</w>
Ent wurf</w>
re chen</w>
Vor sitz
u ter
ens wert</w>
gro ß</w>
än gt</w>
F -
An d</w>
ada p
W ander
ag s</w>
l te</w>
om in
great est</w>
ver tei
ge zogen</w>
territ ory</w>
releas ed</w>
co l</w>
aussch usses</w>
n ennen</w>
fir m</w>
zu stimmen</w>
3 4</w>
Mo der
betra chten</w>
w esen</w>
ar ing</w>
m eist
ti scher</w>
l es
Min dest
ic ken</w>
bru ch</w>
enorm ous</w>
en ken</w>
honour able</w>
größ eren</w>
f ers</w>
ein ander
internation aler</w>
abhän gigkeit</w>
P ic
complet ed</w>
H alb
ar ily</w>
isch em</w>
fis cal</w>
ing ton</w>
establ ishing</w>
stimm t</w>
sign al</w>
bre ak</w>
K andi
ech te</w>
kompl ett</w>
pos t</w>
Frühst ück
pic tures</w>
Verpflich tung</w>
claim s</w>
install ed</w>
gesch i
fil l</w>
Democ rats</w>
3 6</w>
de vices</w>
cor porate</w>
man age</w>
Konf li
brei ten</w>
be t</w>
ech ischen</w>
M ärkte</w>
br ary</w>
Mo un
des ire</w>
S til</w>
Griech enland</w>
der ed</w>
w oo
Verhäl tnis</w>
V I
Kri tik</w>
mö gen</w>
Prin zip</w>
ges tern</w>
nam es</w>
or e
ab gel
at ter
Mad rid</w>
sor gt</w>
perspec tive</w>
a j
ac </w>
convinc ed</w>
n ü
4 8</w>
no on</w>
at ures</w>
ent decken</w>
architec ture</w>
n ar
bl ack</w>
regis ter</w>
ma g</w>
vor hand
W e</w>
T est
Regel ungen</w>
Mitt eln</w>
pay ments</w>
- up</w>
beginn t</w>
th or
Found ation</w>
Glob alisierung</w>
Ma ße</w>
sk ills</w>
O li
vor aus
sat ell
biet er</w>
199 4</w>
on s
F it
N utzen</w>
gel assen</w>
near by</w>
S ar
tä t</w>
An teil</w>
comm ent</w>
individu als</w>
om eter</w>
ex port</w>
mitt l
res ort</w>
op pos
exerc ise</w>
cu isine</w>
lä ss
E- Fraktion</w>
ff er</w>
con tain</w>
zu erst</w>
zi </w>
län ger</w>
schie de</w>
Leist ung</w>
ber eiten</w>
et es</w>
G ü
zu gän
R oh
hel pf
conclu sions</w>
her gestellt</w>
M ari
Agent ur</w>
al ty</w>
aus führ
Spe zi
beg lück
besit zt</w>
Ged an
Turk ish</w>
T ick
garanti eren</w>
evol ution</w>
Sant a</w>
Her z
Tra dition</w>
Res earch</w>
prei s</w>
zi gen</w>
si erung</w>
K lim
est ate</w>
w all</w>
ma gn
man gel
Techn ik</w>
w asser
righ tly</w>
ho h
Ban ken</w>
5 0
Stre et</w>
prei se</w>
enti tled</w>
sich ts
Nach t</w>
Wor ten</w>
Erklär ungen</w>
spac ious</w>
ten en</w>
gen annte</w>
tion ally</w>
mark ed</w>
col or</w>
6 5</w>
2 7
K ab
inst all</w>
si ven</w>
m useum</w>
Sp it
plat form</w>
fail ed</w>
beh aup
m un
z y
ap pl
achiev ing</w>
über tragen</w>
wesent lichen</w>
Eis en
B M
De fin
contro ls</w>
deut sche</w>
ati sche</w>
Verk ehr</w>
initi al</w>
M L</w>
leist ungs
W ik
I V</w>
kosten los</w>
statt finden</w>
Grö ße</w>
perf ec
exten ded</w>
key word</w>
wä ch
ap art</w>
ex tra
ekt ur</w>
cour t</w>
pro to
mi um</w>
organis ed</w>
tain ment</w>
institu tion</w>
zah lung</w>
Sch ön
adverti sing</w>
k op
B est</w>
out come</w>
Entschließungsan trag</w>
lü sse</w>
ar ticle</w>
Is lam
fin de</w>
Grün de</w>
C ub
asyl um</w>
el imin
wach st
mbo l</w>
in hab
Ã </w>
Leist ungs
st ood</w>
in zwischen</w>
commit ments</w>
h tt
Betei ligung</w>
or am
fac tors</w>
sur face</w>
sol cher</w>
Tra de</w>
Stra ßen
on i
Ne ther
Koh ä
gran ted</w>
E astern</w>
stark en</w>
medi zin
di se
k er
tot ally</w>
wün sche</w>
ambi tious</w>
ö pf
Bus h</w>
Kompromis s</w>
wel chen</w>
ec kt</w>
ent ing</w>
wen det</w>
continu ing</w>
O rig
g barkeit</w>
s ale</w>
um welt
Tit el</w>
entsp rechen</w>
ali a</w>
ri es</w>
inten ance</w>
k ept</w>
Mis s
bein haltet</w>
er häl
fiz iert</w>
Um fang</w>
f igh
stor age</w>
Ap part
ben ach
Kom bin
regis tri
ent ran
un able</w>
Stad tz
Jav a
S E
tru m</w>
weap ons</w>
S port</w>
über ra
He alth</w>
Palestin ian</w>
sei en</w>
aus län
r ying</w>
surround ing</w>
Unternehmen s
all -
P as
frü her</w>
Feder al</w>
de x</w>
Gol f</w>
ei m
m ir
Europä er</w>
6 00</w>
wh il
c lub</w>
g la
ak t</w>
Flexi bilität</w>
sub sequ
} </w>
ac king</w>
Vi enna</w>
ü st
mot or
boo king</w>
ar tic
as h</w>
lit er
approxim ately</w>
dis pos
ü ben</w>
dedic ated</w>
bil d</w>
zu folge</w>
igran ts</w>
ver letz
allgem eine</w>
Deut sche</w>
w ettbewer
whil st</w>
T our</w>
Ab satz</w>
re mind</w>
t on
Vide o</w>
candi date</w>
dise ase</w>
Ak tionen</w>
gel ief
d &apos;
bli oth
3 7</w>
dien st</w>
Pati enten</w>
i en
lim its</w>
ver häl
f ach</w>
Mitglie dern</w>
Z immer
erhö ht</w>
um p
Kon tin
Ni veau</w>
Schlü ssel
En d
stei gen</w>
Austri an</w>
rä ger</w>
mem ory</w>
D on
e quality</w>
rech tlichen</w>
bri tischen</w>
up date</w>
haupts ächlich</w>
er es</w>
ge öffnet</w>
Fre e</w>
colleag ue</w>
Ar ab
k ann
O M
Haushal tsp
ex klu
sorg fäl
G az
enn t</w>
c ent</w>
col our
kra ft</w>
verl oren</w>
ta il
ab geschlossen</w>
Empfeh lungen</w>
Erei gnisse</w>
Wieder auf
A ll</w>
mas sive</w>
tel evision</w>
E hr
al em</w>
A G
be aches</w>
Constitu tion</w>
existen ce</w>
inter face</w>
exam ples</w>
Ein druck</w>
un to</w>
t oler
spezi ellen</w>
ó n</w>
ar en</w>
arri val</w>
sci ence</w>
ing u
de vice</w>
g ä
kür zlich</w>
Ham burg</w>
Gegens atz</w>
nation aler</w>
Men ü
inform iert</w>
what ever</w>
ri ver</w>
ar i</w>
C ast
Man ager</w>
ung sin
über n
Metho de</w>
priv il
Binnen mark
m ün
rel ativ</w>
ger en</w>
vali d</w>
our n
R ichtlinien</w>
li e</w>
tur ning</w>
bek annten</w>
fähi g</w>
multi later
swi t
St rei
bew eg
Verstän dnis</w>
B ab
ge gangen</w>
ul a</w>
ac compan
inter vention</w>
ad vice</w>
ur s
K ro
mei st</w>
lem ent</w>
Er hö
indepen dence</w>
Ver letz
pi ece</w>
S ci
Mon at</w>
jüng sten</w>
á </w>
T ha
Nether lands</w>
sch ir
199 0</w>
big gest</w>
Gebi ete</w>
success fully</w>
sen sus</w>
au c
h aus
con ci
persön liche</w>
acces sible</w>
C E
mitt elt</w>
wi der</w>
pre vention</w>
tar gets</w>
a ther</w>
. 000</w>
wirtschaf ts
lis ten</w>
expendi ture</w>
hol ung</w>
Tre ffen</w>
us ual</w>
sich erung</w>
t ürk
Grund satz</w>
tri p</w>
geschi eht</w>
eval u
cho sen</w>
Auf bau</w>
G rü
blo ck
8 -
igh t
surround ed</w>
as king</w>
arch i
ro l</w>
Ris iken</w>
be zogen</w>
k as</w>
oblig ations</w>
su n</w>
ag ne</w>
Schl uss
ein verstanden</w>
genau so</w>
N er
ak zept
v eget
appro val</w>
außer ord
monit or</w>
prak tisch</w>
Bot schaft</w>
g uter</w>
A tom
ven ue</w>
erforder t</w>
S tern
nachhal tige</w>
particip ants</w>
organiz ation</w>
ast s</w>
k um
win d</w>
agen cy</w>
f assung</w>
A N</w>
un ge
gn issen</w>
Re alität</w>
de ep</w>
ent eil</w>
EC U</w>
ne arly</w>
High </w>
perfec tly</w>
att ack</w>
back ground</w>
sub scri
bin ding</w>
y right</w>
ent y</w>
hi elt</w>
politi sch</w>
v es
expres sion</w>
g g
Wirk ung</w>
le v
Fra ktionen</w>
i ans</w>
Gener ation</w>
beau ty</w>
rou te</w>
promo tion</w>
const antly</w>
Alt stadt</w>
T en
st ö
M es
gui de</w>
Beg riff</w>
Hoff nung</w>
bring ing</w>
jähr lich</w>
go als</w>
ag ue</w>
mü s
kom bin
M use
Bei hilfen</w>
recommend ations</w>
eri a</w>
so ver
writ e</w>
A cc
appoin ted</w>
form ing</w>
unter schei
Orig in
I G
Nutz er</w>
füh len</w>
lan gt</w>
medium- sized</w>
m ly</w>
la id</w>
To des
b loo
fi l</w>
8 00</w>
govern ance</w>
bet roffen</w>
p utting</w>
p he</w>
regel mäßig</w>
Op tion</w>
deli ver</w>
Cro ati
deu ten</w>
as su
Gr unde</w>
Sy ri
O m
an e</w>
cont ents</w>
co ast</w>
fir e</w>
I N</w>
do c
Pro vin
angen eh
S un
a el</w>
fest gestellt</w>
no ch
Al ban
R ad
f ach
mer ely</w>
D ut
aller y</w>
Gre ek</w>
eng ine</w>
ab en</w>
St ein
3 8</w>
vorgeschla genen</w>
advant ages</w>
helpf ul</w>
f elt</w>
kün st
quali fied</w>
cla im</w>
regis tration</w>
Aus sicht</w>
di sh
ho st</w>
Eng land</w>
inter ven
rail way</w>
situ ations</w>
fac es</w>
air craft</w>
ma intenance</w>
abhängi g</w>
vi erung</w>
employ ed</w>
en dum</w>
Voraus setzungen</w>
on to</w>
gew al
dimen sion</w>
an lagen</w>
ex plan
re den</w>
Arbei t
U l
Ph ase</w>
Dimen sion</w>
bri dge</w>
Politik er</w>
strength ening</w>
tri fft</w>
mom ent
c au
Unter kunft</w>
u .
wichtig ste</w>
hän gt</w>
ke eping</w>
met ers</w>
glob ale</w>
vehic le</w>
A B
Er war
S and
substanti al</w>
Geg enteil</w>
In nen</w>
rap id</w>
da p
ch urch</w>
é s</w>
den k
di ger</w>
Plat t
Eff izi
eck -
cons istent</w>
and ed</w>
rei ber</w>
einzi gen</w>
Fot os</w>
5 5</w>
der ship</w>
mechan ism</w>
S ank
lo ad</w>
Meer es
Reg ulation</w>
K las
Bedar f</w>
m ass</w>
H äl
on ia</w>
Nich trau
recomm end</w>
poin ted</w>
Sk i
Kon troll
K aff
be wegen</w>
holi days</w>
ob vious</w>
gram mati
il ing</w>
N um
ti erung</w>
hol en</w>
Er de</w>
Far b
th eit</w>
j unge</w>
Be obach
einzel ne</w>
Ris iko</w>
contain ed</w>
physi cal</w>
exper im
pre viously</w>
G ran
favo ur
D e</w>
H is
ordn ungs
regel n</w>
produk tion</w>
comp liance</w>
f ein
R am
Sum mit</w>
gesell schaften</w>
un it</w>
ef s</w>
comm unities</w>
präsen tiert</w>
v it
R äum
tri ed</w>
Ver mitt
form ation</w>
Führ ung</w>
neigh bo
Bestand teil</w>
stell te</w>
art a</w>
pati ents</w>
I D</w>
bar ri
plann ed</w>
n un
lin ge</w>
kann st</w>
C af
event u
E st
ränk ungen</w>
c m</w>
lä gen</w>
ide ale</w>
ent gegen
j ungen</w>
wor fen</w>
fac tor</w>
p assung</w>
Bil dungs
S .
cap able</w>
Prü fung</w>
gewün sch
S ain
Mitglied s
w ater
intel li
bet roffenen</w>
h a</w>
ier enden</w>
arti sts</w>
dou b
rei bt</w>
d den</w>
ne -
Institu te</w>
A ir</w>
zip ien</w>
parall el</w>
mid dle</w>
Vor teil</w>
wo durch</w>
Industri e
Agen cy</w>
st ory</w>
Gol f
Sch war
Ö l
at o</w>
dic t
it age</w>
I A</w>
ren o
Rel ig
J ourn
C S
dynam ic</w>
schn eller</w>
ühr en</w>
Gesetz gebung</w>
ques ts</w>
w est</w>
an statt</w>
zweifel los</w>
D re
ei len</w>
r ent</w>
sol ange</w>
f it</w>
li erte</w>
htt p</w>
ch em</w>
lo ss
Fir men</w>
get eilt</w>
sur vi
conclu de</w>
some one</w>
3 9</w>
am ong
on ed</w>
du s</w>
exten d</w>
on t
str ö
su ite</w>
n icht
dec ades</w>
Rei se</w>
r ul
zurück zu
dau er
among st</w>
O s</w>
ther eby</w>
gi ge</w>
an geht</w>
voll kommen</w>
J er
Play er</w>
grenz überschrei
G ent
zu verlässi
li ability</w>
person ally</w>
coff ee</w>
seek ing</w>
dist inc
äu fer</w>
Hand el
respon sibilities</w>
nah m</w>
konstru k
um b
ör per
Cas ino</w>
beschäf tigt</w>
Un abhängigkeit</w>
out standing</w>
manufactur ing</w>
ph ilosoph
disku tiert</w>
LA N</w>
caus es</w>
In seln</w>
s even</w>
i ds</w>
an bieten</w>
kan ischen</w>
Rei se
Mot or
Erhö hung</w>
noch mals</w>
guarant eed</w>
eh nt</w>
gel aden</w>
er er</w>
m as</w>
Got t</w>
st one</w>
inten sive</w>
f light</w>
199 2</w>
ver w
rec eption</w>
Häl fte</w>
ser n</w>
vul ner
Nieder lan
fra gt</w>
unter st
Über prüfung</w>
Ge währ
Ratspräsi dent</w>
bu chen</w>
bar s</w>
ar ms</w>
gan gs</w>
Liber alisierung</w>
moun tains</w>
un ch</w>
weiter es</w>
For eign</w>
enn ung</w>
cap it
Java Script</w>
An rei
Ber lin
beru f
win den</w>
reco very</w>
optim al</w>
Dien st</w>
O ut
dri ving</w>
u .</w>
An lagen</w>
le ads</w>
relax ing</w>
k einer</w>
M ill
sei tens</w>
berühm ten</w>
Un d</w>
tre ated</w>
win dow</w>
e .</w>
of -
li an</w>
besser en</w>
at trak
addres sed</w>
freund liche</w>
W and
Infra struktur</w>
A lex
speci es</w>
test ing</w>
gewäh lt</w>
gel y</w>
Jap an
depen ding</w>
gef örder
ati sch</w>
f illed</w>
Diskrimin ierung</w>
Aus land</w>
wes halb</w>
Zah lungs
König reich</w>
Kor ea</w>
sp eich
E u
S D
ar di
n ations</w>
be zieht</w>
con sensus</w>
tro l</w>
R ules</w>
Mus li
resul ting</w>
ali ge</w>
ges eh
sm aller</w>
er o
u z
1 1.
Stru ktur</w>
re move</w>
dispos al</w>
in spi
sel l</w>
p ak
19 .</w>
wle d
M erk
ck t</w>
Städ te</w>
wä s
boo ks</w>
determin ed</w>
tradition ellen</w>
Fes tival</w>
H -
poten zi
sur pris
discuss ing</w>
al a</w>
re agieren</w>
L atin</w>
or ds</w>
ö der
dig ungs
Environ ment</w>
Zah len</w>
n d</w>
fäl len</w>
s quare</w>
pp e</w>
M ü
fac ed</w>
mar ily</w>
con soli
att acks</w>
ent ure</w>
-R eg
Pe ople</w>
is ieren</w>
Veranstal tungen</w>
wer ten</w>
t äu
alis ieren</w>
t ests</w>
Ak ti
eval uation</w>
invest ments</w>
di schar
PH P</w>
posi t</w>
bur e
Lin ks</w>
spezif ischen</w>
tz ei
Hol z
Stra f
Sonn en
Koordin ierung</w>
fer tigt</w>
categ ory</w>
er as</w>
9 6</w>
Rum än
m ung</w>
re ve
Eink aufs
Intern ationalen</w>
Metho den</w>
m o</w>
expl ain</w>
Pub lik
Swe den</w>
B -
al ter
am ents</w>
P eter</w>
Pe ti
Charak ter</w>
extre me</w>
ra d</w>
W ür
is iert</w>
es ische</w>
Aktion sp
Nichtrau cher
stoff en</w>
kom fort
gemein sam
On line</w>
Al liance</w>
C ard</w>
Ob ama</w>
spezif ische</w>
region ale</w>
ar m</w>
industri es</w>
ti tle</w>
Con trol</w>
sen s</w>
tal ks</w>
ho ff
gesch lossen
compet ence</w>
S S
la ke</w>
gesp eich
strateg ie</w>
dritt ens</w>
Tei len</w>
cons ists</w>
br ings</w>
Angebo te</w>
lux ury</w>
attrac tions</w>
P in
Har d
sprü che</w>
pri marily</w>
ab sich
tou ch</w>
ob ject</w>
del ay</w>
schö n</w>
akzep tiert</w>
fl us
V -
Unternehmen s</w>
m ari
spre ad</w>
Sch we
pre p
Inn en
phot os</w>
Far ben</w>
Hin weis</w>
u ti
an gel
K lar
W inter
wer fen</w>
sicher stellen</w>
fahr ens</w>
landscap e</w>
berei che</w>
Fäl le</w>
or al</w>
Ad ministr
1 st</w>
schn itt
dest ru
no tice</w>
s es
exp ect
am et
mis s
w an</w>
ill ing</w>
D avi
sy mp
. de</w>
k ehr</w>
bet ont</w>
K M
ste el</w>
ol der</w>
st euer
lief ern</w>
Frühstück s
Haupt stadt</w>
posi tiven</w>
bequ em</w>
Ver öffent
Män ner</w>
komp et
techn ological</w>
Rom ania</w>
Lauf e</w>
identi ty</w>
prim ary</w>
ur ge</w>
höch ste</w>
fic ations</w>
incor por
z te</w>
lis ted</w>
9 7</w>
comp lic
e ar</w>
Gu est</w>
Klima anlage</w>
trans fer
bu tions</w>
Min utes</w>
gew isse</w>
In n</w>
Ru he</w>
multi -
condi tioning</w>
bro wser</w>
mo de</w>
multi ple</w>
wa chen</w>
T ai
Beweg ung</w>
län dlichen</w>
un anim
Wil len</w>
Ch em
manufactur ers</w>
ent lichen</w>
lieg ende</w>
d an</w>
smo king</w>
spac es</w>
organis ationen</w>
pres sion</w>
sanc tions</w>
Unter schiede</w>
ch i
lag s</w>
nit ure</w>
bil det</w>
Ent sch
kil omet
J es
si ght</w>
län e</w>
tel ef
Tier e</w>
Bu ch</w>
An passung</w>
Dokum ente</w>
de alt</w>
ge arbeitet</w>
w- how</w>
li a</w>
beg ann</w>
isch -
equ ally</w>
Netz werk</w>
ein richtungen</w>
sho wer</w>
r en</w>
k ul
ur ban</w>
g ut
l ament
T emp
zi em
di versity</w>
mut ual</w>
associ ation</w>
proc eed
es te</w>
zeu gung</w>
ol z</w>
conduc t</w>
lei den</w>
Stu dio</w>
lea dership</w>
Ge w
Gesetz e</w>
er ungen</w>
An liegen</w>
Gr enze</w>
de h
Um ständen</w>
Teil nehmer</w>
accoun ts</w>
Per spek
represent ative</w>
Materi al</w>
E F
Klimawand el</w>
Ord nung</w>
Reak tion</w>
ag iert</w>
Deleg ation</w>
nor th</w>
Z immern</w>
rec ord
ti ally</w>
F ähigkeit</w>
übern ommen</w>
La ke</w>
ol a</w>
ab len</w>
weg s</w>
ed ge</w>
S amm
ra il</w>
ver lieren</w>
Diskus sionen</w>
regel mäß
speak ers</w>
ell ec
sk i
Bed ro
bür ger
Projek t
erneu er
Ver such</w>
er geben</w>
Eur o-
ver stärkt</w>
li ation</w>
si eben</w>
Comp any</w>
consult ation</w>
ear bei
sch lim
cop y</w>
beh inder
Bed enken</w>
st ations</w>
Vorberei tung</w>
er ie</w>
Res ort</w>
signific antly</w>
om as</w>
for est</w>
Kol lege</w>
el -
grund lage</w>
beein flus
vot es</w>
stell ungs
ko ordin
derzei tigen</w>
S ur
Ein sch
prep are</w>
ha m</w>
Stadtz entrum</w>
Reg uli
• </w>
man che</w>
ver sions</w>
wieder um</w>
ger ufen</w>
etz en</w>
ath ed
basi ert</w>
blo ck</w>
impro vements</w>
N ik
d ritten</w>
R ou
0 9</w>
W aff
der i
deleg ation</w>
Land schaft</w>
controll ed</w>
enter ed</w>
Form at</w>
mechanis ms</w>
ein s</w>
s tic</w>
on ic</w>
aff ect</w>
un denen</w>
är m
loo ks</w>
ren ov
nam ed</w>
Eink lang</w>
config ur
ci vi
Pal ace</w>
Ge fühl</w>
0 8</w>
li eben</w>
ver langen</w>
sm it
16 0</w>
s au
p un
Wor k
mean ing</w>
Pro duc
represent ed</w>
scho ols</w>
acc ess
ob serv
deliver ed</w>
sk in</w>
i ens</w>
p et
jähri ge</w>
Ch amp
fol gerungen</w>
h oriz
G laub
sch war
I II</w>
Pro di</w>
Br enn
untern ommen</w>
tur ed</w>
jem and</w>
politi cians</w>
c ast</w>
exp an
S O
V it
gl ass</w>
g keit</w>
Su ch
be fassen</w>
g one</w>
Ser ie</w>
visi ble</w>
Pau l</w>
un sten</w>
Schi ff
hier bei</w>
prec ed
furn ished</w>
al p
geb en
fu el</w>
de ad
gesch ä
compati ble</w>
9 .</w>
v ill
b us
entscheiden d</w>
for c
diver se</w>
P r
Ameri ka</w>
d rücken</w>
Mich ael</w>
Aut ob
errei ch
nö tig</w>
Verfü gbarkeit</w>
l as</w>
z ell
Mar tin</w>
Mark et</w>
wichtig es</w>
high light</w>
contem porary</w>
St unde</w>
Pra k
m igration</w>
T al
e o</w>
ber n</w>
st ore</w>
komp liz
la w
ri es
O pen
Grund rechte</w>
hö here</w>
Teil nahme</w>
Milit är
&apos; ve</w>
eg al</w>
u tion
6 4</w>
ra c
Strateg ien</w>
Kombin ation</w>
L icht</w>
ris ing</w>
sou thern</w>
def ault</w>
ti le</w>
ak tive</w>
amerikan ische</w>
kin ds</w>
ehem aligen</w>
requ ested</w>
ne ut
C lu
199 3</w>
beg rün
exper tise</w>
d as
K ür
tem porary</w>
Voraus setzung</w>
T his</w>
li erung</w>
Kör per</w>
an erkannt</w>
Dut ch</w>
n den</w>
St ellen</w>
erlau ben</w>
ung er</w>
icht ete</w>
zi elt</w>
exc ept</w>
Gä sten</w>
be ob
Ber ücksich
rep ly</w>
der artige</w>
Über nach
Mon t
mit tag</w>
foo t</w>
k -
z y</w>
qu ick</w>
is o
descri ption</w>
u d</w>
we alth</w>
be absich
an i</w>
ari en</w>
e au</w>
to m</w>
A g
Bra zi
sol e</w>
Ant worten</w>
es sive</w>
behand eln</w>
w on</w>
si </w>
ang s
H ü
r ichtlinie</w>
help ing</w>
и </w>
B ay</w>
Sü den</w>
compens ation</w>
K unde</w>
reg ret</w>
cross- border</w>
emphas ise</w>
zunehmen d</w>
ra y</w>
in ary</w>
ov </w>
R ent
Überein kommen</w>
au sh
Form ular</w>
ech ten</w>
umfas senden</w>
Tem per
Er wachsen
stra ße</w>
ign or
Fre unde</w>
erhäl tlich</w>
qu ote</w>
0. 000</w>
Effizi enz</w>
Stu die</w>
F lä
ver anst
beg lei
H öh
beh örden</w>
fin ding</w>
star ten</w>
Berücksich tigung</w>
eb ene</w>
recogn ise</w>
c a
fund ament
konkre ten</w>
celeb r
Op en</w>
pleas ure</w>
allgem ein</w>
resp ek
er fahr
gl ück
Bei fall</w>
ir y</w>
pe op
Telef on</w>
F la
ri ft</w>
le ch
Sank tionen</w>
W esten</w>
will ing</w>
si bly</w>
Y ou</w>
ac ting</w>
I P
gen er</w>
v e-
histor ische</w>
H än
expen sive</w>
bes or
f ak
oppos ite</w>
lin ed</w>
re jected</w>
b om
vorsch lag</w>
mel dung</w>
betre ffen</w>
An sch
m ale</w>
dru gs</w>
lin ie</w>
künf tig</w>
mel den</w>
ent lang</w>
G DP</w>
decisi on-
Fre ude</w>
ta il</w>
ra dio</w>
T R
af ri
4 9</w>
An lage</w>
oblig ation</w>
Grund sätze</w>
ho l</w>
f ting</w>
wesent liche</w>
20 .</w>
laun ched</w>
foli o</w>
sha pe</w>
ho her</w>
ver se</w>
at oren</w>
gol f</w>
Allgem einen</w>
streng th</w>
st off</w>
dien ste</w>
prof it</w>
r ö
Res p
auth or</w>
hil ft</w>
atti tude</w>
Z oll
0 7</w>
spra chen</w>
ath s</w>
B ou
bei zu
R ome</w>
Win ter</w>
So zi
T aus
tig ungen</w>
Untersuch ung</w>
Ge win
occ ur
hi </w>
gel ungen</w>
Entwick l
g an</w>
B ör
Gei st</w>
War en</w>
defin i
satell ite</w>
is s
2 50</w>
Ver träge</w>
4 2</w>
refuge es</w>
gres sive</w>
f abri
renew able</w>
tur ing</w>
re quests</w>
besi des</w>
Mein ungs
bet t</w>
Medi a</w>
staat liche</w>
Res i
Eigen schaften</w>
consequ ently</w>
ari um</w>
, 00</w>
fr aud</w>
min e</w>
emphas is</w>
L im
r auch</w>
Ver halten</w>
kno ws</w>
present ation</w>
web sites</w>
engine ering</w>
Ma il
Sch äden</w>
ziem lich</w>
sol ve</w>
er in</w>
tax es</w>
Det ails</w>
Program m
appe al</w>
ob st
comb ating</w>
Maß nahme</w>
getre ten</w>
om en
Bahn hof</w>
oper ators</w>
Cham ber</w>
3 .</w>
Sp ek
leng th</w>
figh ting</w>
expect ations</w>
B earbei
A V
Hil fs
flü ge</w>
e th</w>
for um</w>
r uns</w>
hel ps</w>
brei tung</w>
Zu griff</w>
tion ality</w>
G B</w>
p el
kl einer</w>
t ment</w>
komm erzi
st äd
tu t</w>
co ok
unmittel bar</w>
priv acy</w>
Ver brechen</w>
Ferien woh
Zu stand</w>
mo bility</w>
Wirtschafts -</w>
f ts</w>
8 5</w>
tra gung</w>
resol ve</w>
R ob
Komm ent
feel ing</w>
E di
sub stances</w>
Aus gang
N L</w>
ta ste</w>
T od</w>
Auf trag</w>
oo k</w>
kultur elle</w>
mil lions</w>
ev a</w>
const ant</w>
d ul
ges pi
dra wing</w>
s ult
di seas
außer gewöhn
beein druck
po or
schn ell
experi ences</w>
gri ffen</w>
Sch ule</w>
mensch lichen</w>
heb ung</w>
bi o
inten tion</w>
recommend ed</w>
m ärkte</w>
re place</w>
schließ t</w>
ultim ately</w>
d t</w>
D a
G U
comp ly</w>
führ ende</w>
tex ts</w>
vor an
2 1.</w>
M ak
Rot ary</w>
ver sorgung</w>
Z ur
dies el
bezieh ung</w>
Ro yal</w>
per s</w>
her aus</w>
Gen ehm
Defin ition</w>
g ü
S ter
äh igkeiten</w>
lat ter</w>
ern st</w>
Völk er</w>
arran gements</w>
rel atively</w>
Ad ri
st ät
H on
lich ten</w>
ver änder
exis ts</w>
schätz en</w>
aff airs</w>
Ver trags
E gyp
Sit z</w>
suff ering</w>
beg onnen</w>
welt weiten</w>
lis ten
u ung</w>
relig iö
Landwir te</w>
Un gleich
ei ght</w>
sch auen</w>
Mik ro
asi de</w>
Minis ters</w>
m ur
st echn
ser ves</w>
li t</w>
Cu st
produc ing</w>
sub -
re kt</w>
W äh
Spiel e</w>
cover s</w>
Kon sequ
kon tak
vin ce</w>
reser ve</w>
institution ellen</w>
ma ß</w>
Leit linien</w>
An fragen</w>
G ep
Ar gent
Fran c
disa ster</w>
heal thy</w>
c are
Kar ten</w>
host els</w>
mo ved</w>
di ty</w>
Ak te
beauf trag
ar ische</w>
recogn ised</w>
E G</w>
prot ecting</w>
W ien</w>
cons ci
Er kenn
Archit ektur</w>
ä ck
passen gers</w>
construc tive</w>
o ten</w>
Downlo ad</w>
int ellec
F ut
f ai
wat ch</w>
ma y
ei te</w>
refl ect</w>
C y
Ab sicht</w>
pro of</w>
cl ing</w>
zusätz lichen</w>
wissenschaf tlichen</w>
Prü f
Asy l
mo vi
Kon tak
niem als</w>
S quare</w>
angem essen</w>
ach tung</w>
au l
un its</w>
er ei</w>
P ool</w>
ser vers</w>
beträ gt</w>
th ro
A 3
sol d</w>
ati es</w>
ier ende</w>
d ler</w>
dest ination</w>
bes ei
ra sch</w>
For t
Stand ard
st res
dan ger</w>
conc ep
applic able</w>
Kapit al
hand ling</w>
t ent
Sp ann
Hin der
eg el</w>
ersch einen</w>
interes siert</w>
et ter
exten sion</w>
geförder t</w>
op posed</w>
men ten</w>
ur ement</w>
En ergy</w>
er öffnet</w>
Sch ü
Au th
W ash
abl ing</w>
nä her</w>
err or</w>
ci pl
Fischer ei</w>
Fi re
tru th</w>
Kü ste</w>
nach zu
Is land</w>
Host el
grundsätz lich</w>
CO 2</w>
F ein
co her
Strateg y</w>
Leb ens</w>
reach ing</w>
diseas es</w>
schwieri gen</w>
ung ser
woh l
s low
grundleg enden</w>
ö sterrei
valu able</w>
sti l
sa v
D A
bur den</w>
win digkeit</w>
dis covered</w>
lo g</w>
centr es</w>
P hi
Sch engen</w>
kur ze</w>
produk te</w>
enth al
invol ving</w>
Gedan ken</w>
do kum
aktivi eren</w>
E ar
vis u
lis te</w>
Erwar tungen</w>
vor geseh
schn elle</w>
direc tives</w>
Wo chen
ausgezeichn ete</w>
appreci ate</w>
F T
v ar
wn s</w>
leb ens
Sch aden</w>
ol l</w>
P aper</w>
Bi blioth
Besch reibung</w>
inc en
eigen es</w>
M ang
fül lung</w>
Materi alien</w>
b ath</w>
R oll
offici als</w>
-S ter
B ir
än der</w>
0 5</w>
j ection</w>
gr enzen</w>
Ru le</w>
automati c</w>
Lin k</w>
Mittel punkt</w>
tur ns</w>
artic les</w>
increas es</w>
par lament
pl en
critic ism</w>
den den</w>
übri gens</w>
Mun ich</w>
t ary</w>
M aria</w>
exclu sively</w>
Kateg orie</w>
prä z
B au</w>
graph ic</w>
mag az
Sc ot
ruhi gen</w>
ad en
bedau er
C ul
instal liert</w>
Ab stimm
L ord</w>
ver ändert</w>
M ur
sch wei
K auf
m 2</w>
fig ure</w>
K y
3 ,
wes tern</w>
confir med</w>
Su ite</w>
Entschei dungs
Char ter</w>
ob il
sat lan
invol vement</w>
kurz em</w>
italien ischen</w>
Nor men</w>
Wer k</w>
st ä
hervorra gende</w>
B us</w>
pol lu
li efer
mand ate</w>
k amp
Agrar politik</w>
i red</w>
mar g
Reg ier
Wahr heit</w>
or a</w>
lar gely</w>
be zug</w>
f ail</w>
mitt ler
kün fte</w>
hol ding</w>
Entwicklungs ländern</w>
entwick elten</w>
thre at
ti erten</w>
Nach frage</w>
sp a</w>
bed ro
ti s</w>
cre ative</w>
deb ates</w>
Nor den</w>
P ro</w>
natür lichen</w>
to urs</w>
ier s</w>
w us
Schwe den</w>
Ein stellung</w>
sc lub</w>
obst ac
Kap az
depen dent</w>
tick ets</w>
an e
happ ens</w>
determin e</w>
An griff</w>
Verbesser ungen</w>
be deuten</w>
um n</w>
zentr alen</w>
L ou
re ds</w>
fi </w>
privil eg
teil nehmen</w>
besit zen</w>
sug gest</w>
erheb lich</w>
feh l
es -
re m
s we
cy cle</w>
n de</w>
Rau m
e. g.</w>
Wis senschaf
dischar ge</w>
peri o
C O</w>
enth usi
e as</w>
grundleg ende</w>
O ri
pro file</w>
Berat ung</w>
gespi elt</w>
to b
Hostel sclub</w>
Sch au
lei sch</w>
Beru fs
bo at</w>
out put</w>
gen i
zw ungen</w>
bes tim
peop les</w>
pf en</w>
is ol
fi es</w>
tei </w>
ven tionen</w>
Bei spiele</w>
Exper ten</w>
Brit ain</w>
am tier
Kohä sions
D ra
and -
ent standen</w>
best and</w>
ma ster</w>
rapporte urs</w>
Jo se
Dat a</w>
wech sel
s w
e ge</w>
um geben</w>
bal con
I l
tre aty</w>
amoun ts</w>
ass ist</w>
An dre
ausgezeichn eten</w>
Swe dish</w>
contri butions</w>
e -</w>
Sch u
Finan cial</w>
tick et</w>
kost et</w>
St off
liber alisation</w>
fru it</w>
sem in
li ers</w>
enti al</w>
Empfeh lung</w>
ens es</w>
vol ume</w>
heav y</w>
g ir
US D</w>
ep age</w>
be ge
erweiter t</w>
repe at</w>
Kin d</w>
Arch i
J </w>
berech tigt</w>
happ ening</w>
stri c
identi al</w>
ot echn
letz tlich</w>
temper ature</w>
dish es</w>
th in</w>
neu esten</w>
v ent</w>
umfas sen
Struktur en</w>
an schließend</w>
wor se</w>
b all
ey e</w>
Ratsvor sitz</w>
t edly</w>
ti erte</w>
conveni ent</w>
P L
ek en</w>
ver langt</w>
ann e</w>
Bef u
W at
Wirk lichkeit</w>
objec ts</w>
spo t</w>
verk ehrs
sp ring</w>
tre es</w>
Al b
auf zunehmen</w>
grat ulieren</w>
gen des</w>
prosp er
Nah en</w>
char ges</w>
defin e</w>
leav ing</w>
ah nen</w>
ori um</w>
alis tischen</w>
Stell ung</w>
1 000</w>
an wes
coun ter</w>
leg ungen</w>
sk y</w>
mean ing
g -
d ritte</w>
icht eten</w>
Bes or
Fo to</w>
che ap</w>
bemüh t</w>
ich erung</w>
wat ers</w>
kein es
Ambi ente</w>
Y u
Über zeugung</w>
ch ain</w>
ausgest att
n ungs
th e-
ic king</w>
or ca</w>
opin ions</w>
Pf licht</w>
I t</w>
i x</w>
I mp
em a</w>
bri ef</w>
abgel ehnt</w>
em ed</w>
ici ous</w>
Verk auf</w>
R adi
befür wor
wachst um</w>
pp en</w>
Ge winn
7 00</w>
tr äch
R h
it ely</w>
kon trolle</w>
än ger</w>
ursprün glichen</w>
fal sch</w>
A L</w>
er maßen</w>
höch sten</w>
sch we
ück e</w>
get r
Unter schied</w>
ger äum
W affen</w>
at a</w>
tra ges</w>
sur v
schön sten</w>
ran k</w>
rüst ung</w>
er ter</w>
strateg ies</w>
Proc ed
m t</w>
b lin
prei s
restric tions</w>
ch ap
räsi dent</w>
resol utions</w>
k ämpfen</w>
resol ved</w>
E T</w>
omm enen</w>
forder e</w>
presi dent</w>
U .
D onn
hab er</w>
par ents</w>
ic kt</w>
ob tained</w>
isch ung</w>
kon sequ
thir dly</w>
zugän glich</w>
help ed</w>
dis cipl
li eb
off enen</w>
1 20</w>
198 9</w>
weis ung</w>
kehr en</w>
hund reds</w>
199 1</w>
bri ef
west lichen</w>
o st
hab t</w>
Be ach</w>
Kri min
PD F</w>
hand els
sat zes</w>
R -
comm and</w>
sch afft</w>
kon tinu
3 D</w>
T ari
certain ty</w>
ad voc
Führ ungs
comm un
St atisti
um zusetzen</w>
produz iert</w>
o po
ph en</w>
Klim a</w>
Wal d
ur a</w>
r ein</w>
U ser</w>
prepar ation</w>
sp anischen</w>
remo ved</w>
Harmon isierung</w>
t sin
appear ed</w>
tre at</w>
Un gar
rupp en</w>
betreff enden</w>
Bu cht</w>
Glob al</w>
L ob
coll ective</w>
wettbewer bs
E ssen</w>
medi um</w>
st am
Sch la
depen ds</w>
kurz fris
ver ehrte</w>
gän ge</w>
ech t</w>
Web sites</w>
un gef
sch icken</w>
a ß</w>
sur ely</w>
ass ure</w>
Projek ten</w>
contrac ts</w>
P unkten</w>
C r
ver bringen</w>
bil dungs
b our</w>
compl ain
organis iert</w>
nor mal
M alt
rema ining</w>
off ices</w>
v an
ME Ps</w>
T -
regul atory</w>
Zer ti
X -
zu legen</w>
Ko operation</w>
communic ations</w>
An bieter</w>
ro te</w>
vor genommen</w>
s and</w>
pro ve</w>
Dienstleist ungs
Kam era</w>
Ab kommens</w>
ich en</w>
di a</w>
ü sse</w>
de par
ig ner</w>
künf tigen</w>
zi ele</w>
man i
atur en</w>
h ä
f tung</w>
Engl isch</w>
laun ch</w>
verurs acht</w>
Er leb
k ro
Bo den</w>
k g</w>
Verf assungs
c en
St art</w>
hier zu</w>
prec ise</w>
Tour ismus</w>
for es
St euern</w>
i. e.</w>
def end</w>
voll ständige</w>
z ir
pro p
Anwen dungs
Ex press</w>
wirk sam</w>
stre ets</w>
wi tn
ob jek
cre ates</w>
post -
f ern</w>
per form</w>
kri eg</w>
Wh ite</w>
aut onom
E D
f ted</w>
on i</w>
require ment</w>
organiz ations</w>
Emis sionen</w>
V ie
p es</w>
Mitglied schaft</w>
invest ors</w>
Air bus</w>
frei wil
hervor heben</w>
Region al
seh e</w>
über nimmt</w>
un eingesch
ali ze</w>
jeg liche</w>
ass ungen</w>
20 12</w>
wirtschaf tlicher</w>
Min i
Aus führungen</w>
Rom an</w>
durch zuführen</w>
bek ämpfen</w>
O R</w>
Frem den
sicher ungs
ge prä
G M
A qu
H oll
wirk lichen</w>
L ang
Struktur fonds</w>
wirk ung</w>
conflic ts</w>
Krank heiten</w>
lo ok
c e-
inten d</w>
Bestell ung</w>
erg riffen</w>
fle et</w>
tw o-
funktion ieren</w>
Bra si
Jus ti
sinn voll</w>
Mün chen</w>
t emp
ad ly</w>
sy mb
rah men</w>
vi eren</w>
ver stärk
Po ker</w>
Ser bi
Techn ology</w>
Änderungsan trägen</w>
masch inen</w>
Altern ative</w>
GN U</w>
pro hi
letz ten
10 .
reich ung</w>
impres sive</w>
Regis tri
W ur
invol ve</w>
di agno
kontinu ier
k y</w>
ev en
Ar z
komm e</w>
B ack
Ab schnitt</w>
Saf ety</w>
Immobili en
schaf tliche</w>
lau tet</w>
loc ations</w>
Daten bank</w>
Mas sen
dat en
aufge fordert</w>
ben utz
hil fe</w>
identi fy</w>
tes te</w>
excep tional</w>
C oll
th i
0 6</w>
Proced ure</w>
nah e
bish eri
Bade zimmer</w>
oper ational</w>
divi ded</w>
n avig
extre m</w>
ab road</w>
Masch inen</w>
Vorsch lägen</w>
me at</w>
europ a</w>
last ung</w>
issu ed</w>
lo ck
el er
Be weis</w>
m utz
Li eb
ati cally</w>
Konfer enz
beglück wünschen</w>
Wash ington</w>
an en</w>
ell o</w>
Ti ef
Überein stimmung</w>
Sat ell
Ap pl
ult in
jour ney</w>
Rumän ien</w>
di r</w>
hö her</w>
fa ther</w>
Wech sel
ul l</w>
er ör
Ak tu
S ME
Croati a</w>
Vertei digungs
Stra ß
1 1.</w>
pass word</w>
ehr gei
V ision</w>
schlä gt</w>
fur niture</w>
Geb rauch</w>
äh r</w>
sex u
ar ab
chin esischen</w>
E ri
ann ehmen</w>
entsp annen</w>
mus ste</w>
Kon trol
O M</w>
connec tions</w>
oo k
ban ken</w>
-Ster ne-
reser ves</w>
ei ra</w>
h it</w>
zi pl
Verhand lungs
ethn ic</w>
Verbin dungen</w>
Phi li
ta st
W C</w>
reg ularly</w>
er mu
Ausgang spunkt</w>
kar ten</w>
Por t
stit utes</w>
don es
bure auc
viel er</w>
gest atten</w>
be wäl
sch ule</w>
pal ästinens
decision- making</w>
Entwicklungs länder</w>
confir m</w>
effec tiveness</w>
Partn ern</w>
in klu
parli aments</w>
4 3</w>
vor her</w>
har m
tri eb</w>
notwen dige</w>
aus geschlossen</w>
T ime</w>
system en</w>
Tag ung</w>
kl assi
W are</w>
H ome</w>
ari o</w>
4 4</w>
Fil m
verschied ener</w>
awar eness</w>
Pla za</w>
cust oms</w>
lat z</w>
freund lich</w>
blu e</w>
Aus nahme</w>
se eing</w>
bestä tigen</w>
ot te</w>
F enster</w>
Haf en</w>
e eing</w>
Dritt ländern</w>
w alls</w>
Telef on
ck et</w>
Dor f</w>
Well ness
SME s</w>
Am ts
nachhal tigen</w>
Aus stattung</w>
Pu tin</w>
facil itate</w>
sich ere</w>
N ein</w>
n ischen</w>
fin ished</w>
Ma astr
contin ent</w>
al ed</w>
min ority</w>
foc used</w>
itä tsp
österrei ch
klar en</w>
illu str
Ri ver</w>
Künst ler</w>
st opp
main tained</w>
minis ters</w>
F ähigkeiten</w>
h ence</w>
the ore
ing er</w>
zug unsten</w>
ungef ähr</w>
ot ten</w>
the at
gla d</w>
ter ung</w>
ra k
angemessen e</w>
enter tainment</w>
Ex ec
minis ter
besch ränkt</w>
zu zu
schie det</w>
realis tic</w>
n el</w>
Str as
Di rek
Klas se</w>
v ast</w>
tn is
Program men</w>
а </w>
es day</w>
lay ed</w>
Bulg aria</w>
Gest altung</w>
durch führen</w>
Bet ra
char ming</w>
recommend ation</w>
B a
Du sche</w>
d inner</w>
verab schiedet</w>
Aus führung</w>
fün f
Elem ent</w>
hard ware</w>
statis tics</w>
Au stausch</w>
b st</w>
ser viert</w>
ement ary</w>
subsi dies</w>
gespeich ert</w>
fri end</w>
occa sion</w>
bis lang</w>
Aut o
Institu tion</w>
et ed</w>
ch ers</w>
Ratspräsi dentschaft</w>
El tern</w>
N etz</w>
ver trag</w>
car bon</w>
zu ständigen</w>
frequ ently</w>
Konfli kt</w>
il l</w>
wi t
S par
techn ik</w>
Ver ring
Japan ese</w>
S I
di ed</w>
ab and
e ast</w>
Gre at</w>
m ultin
Arbeitsplätz en</w>
hosp it
rä f
ey es</w>
conduc ted</w>
anspru chs
A gri
Dub lin</w>
character istics</w>
electri city</w>
univers al</w>
nahe zu</w>
ann er</w>
hei m</w>
Problem s</w>
sa una</w>
bahn hof</w>
Schwer punkt</w>
con serv
Op tim
d. h.</w>
lan s</w>
out door</w>
emer gency</w>
f it
aus gesprochen</w>
mess ages</w>
produc tive</w>
Gesch m
low -
be zahlen</w>
im es</w>
li qui
spec tac
ek ten</w>
ge prüft</w>
for schung</w>
Po wer
no ise</w>
au dio</w>
steh ende</w>
ch -
D rei
par ks</w>
Geor ge</w>
cast le</w>
Ger äte</w>
Gent oo</w>
frü heren</w>
-R e
masch ine</w>
dem anding</w>
е </w>
sub mit</w>
cle ar
überzeu gen</w>
o th</w>
k ern
Komm un
de als</w>
C E</w>
under stood</w>
conci liation</w>
l o</w>
re vis
Kon kur
cor ruption</w>
Ma ß</w>
wel fare</w>
le ben
do ors</w>
c ab
tro p
Far be</w>
congrat ul
inf o</w>
grat eful</w>
ver wand
k ateg
ro ads</w>
resi dence</w>
Sch ei
Al ter</w>
Pre mier
we ather</w>
b un
G old</w>
cop yright</w>
D ay</w>
ak tiven</w>
¤ </w>
ati ver</w>
defin iert</w>
besch le
man ager</w>
Um gang</w>
Plen um</w>
num mer</w>
Pol ish</w>
An gst</w>
ra d
R ed</w>
ber ge</w>
so dass</w>
m essen</w>
ans wers</w>
min uten</w>
Gleich gewicht</w>
disp layed</w>
T isch</w>
Kro ati
Luxem bourg</w>
bilater al</w>
verhin dert</w>
gelief ert</w>
In dones
ß te</w>
C yp
y le</w>
Buch ung</w>
Slo v
impres sion</w>
az z
er läu
fast er</w>
B ay
sign s</w>
organiz ed</w>
t reiben</w>
M ann
Host els</w>
en de
0 2</w>
igh ted</w>
k rank
interess ante</w>
be an
ver gleich
az ier
Somm er
geh and
Sh op</w>
A .</w>
prin ting</w>
Prin zipien</w>
Fest legung</w>
main taining</w>
Sp i
K en
eu </w>
Vereinbar ungen</w>
Par ti
fe e</w>
modi fied</w>
ent wurf</w>
Wissen schaft</w>
W all
w u
Kommunik ations
classi c</w>
cover ing</w>
ed ing</w>
g oo
Schn itt
et -
judi cial</w>
g or
V an</w>
kur zen</w>
Ur spr
traff icking</w>
B la
of s</w>
ver st
Konta kt
top ic</w>
nun mehr</w>
5 .</w>
Rech ts</w>
4 1</w>
r am
ie den</w>
de cre
aus gesetzt</w>
Stra ßen</w>
R S
rech tliche</w>
pi ec
v ölk
al co
Cyp rus</w>
geh ende</w>
Bemerk ungen</w>
fac ts</w>
co ast
coun tr
Dro gen
Ko sten
Verring erung</w>
Bei träge</w>
exp lic
Außen politik</w>
feh lt</w>
E s
V iz
Fr amework</w>
ra el
Fr on
terror ist</w>
sett ings</w>
Veranst altung</w>
S au
for th
Di alog
So vi
some what</w>
he ber
col our</w>
Regierungs konferenz</w>
Be am
Li by
st ed</w>
n etz
K üh
pro ud</w>
B ö
Ä r
res tru
lo h
ung sch
k raten</w>
Er holung</w>
gro w</w>
s ligh
verlei hen</w>
R and
no ted</w>
d al
Bet re
promis es</w>
shor t
be vorzu
ma chte</w>
einzig artige</w>
pollu tion</w>
la m</w>
an f
tar get
Fak toren</w>
P ack
or -
s auber
R evolution</w>
m ar</w>
is er</w>
Men sch</w>
auf nehmen</w>
R et
Über setz
w asser</w>
struktur en</w>
del ighted</w>
Plan ung</w>
Über setzung</w>
dan k
Geschäf te</w>
Nach richten</w>
m än
Bezieh ung</w>
kü mm
E Z
re di
se at</w>
über wach
inhab it
vis a</w>
Can ada</w>
Hei mat
mor al</w>
sin g
imp lic
Pu er
läss lich</w>
bloo d</w>
dra w
Geg end</w>
dro p</w>
Gesprä che</w>
s .
hinzu fügen</w>
v on
fi f
Kompon enten</w>
vis ual</w>
wün sch
ü gen</w>
lic ense</w>
re turned</w>
tic k</w>
func tioning</w>
F lash</w>
Cop enhagen</w>
S hi
Aus stellung</w>
F A
Re form
mo dule</w>
verring ern</w>
erreich bar</w>
expl ore</w>
4 .</w>
Investi tions
Wer bung</w>
fe atur
Zus atz
c af
ursprün glich</w>
in sp
proper ties</w>
Fr ont</w>
Davi d</w>
dar y</w>
id ly</w>
Schl uss</w>
provi der</w>
declar ation</w>
H imm
woll ten</w>
pas siert</w>
Fit ness
accompan ied</w>
Justi z</w>
E P
Minder heiten</w>
wel chem</w>
no w
sty l
mo stly</w>
in er</w>
Bes onder
un möglich</w>
lei sure</w>
lin gen</w>
di tionen</w>
tats äch
sch ritt
Ger ichte</w>
im posed</w>
sorgfäl tig</w>
u. a.</w>
Fir men
letzten dlich</w>
M em
k el</w>
M esse</w>
P op
pro mp
pre dic
ver ändern</w>
own ers</w>
is rael
Jav a</w>
instal lieren</w>
Gesell schaften</w>
lie ß</w>
cont acts</w>
pro ved</w>
individu elle</w>
activ ely</w>
per formed</w>
begrü ßt</w>
T ar
ent steht</w>
Ver bot</w>
US B</w>
chem ical</w>
ausge führt</w>
besteh ende</w>
erleich tern</w>
stri ct</w>
Hand eln</w>
D ep
An merk
form al</w>
Garanti e</w>
gehöri gen</w>
spartn er</w>
St e
em enti
Ein stellungen</w>
hö heren</w>
re ject</w>
bu ch
P lug
nor thern</w>
geb oren</w>
kat astro
Sup port</w>
D A</w>
indic ated</w>
Bre ak
ger ichtet</w>
aussch uß</w>
Mon etary</w>
t ler</w>
Op tionen</w>
ähn lich</w>
I C</w>
up dated</w>
lu s</w>
sätz en</w>
jo ined</w>
10 -
Reg ime</w>
pl ug
invol ves</w>
normal erweise</w>
k oll
at e
kt op</w>
satis fied</w>
direk ten</w>
Sch ool</w>
dri vers</w>
Ameri kan
restru c
schwi er
fol lows</w>
c les</w>
bemüh en</w>
KM U</w>
Ein beziehung</w>
о </w>
p ft</w>
18 .</w>
ut ing</w>
car eful</w>
committ ees</w>
durch schnitt
ex ter
0 3</w>
po ll
Li ef
u ters</w>
Vertei digung</w>
Zi ffer</w>
R ub
Haf tung</w>
Po st</w>
li erten</w>
gel tenden</w>
g a</w>
in ser
ch air
Deut schen</w>
al d</w>
demonstr ated</w>
sex ual</w>
än gen</w>
cou ple</w>
Bu dap
der ing</w>
äum en</w>
Platt form</w>
Be dien
Ch arta</w>
col d</w>
on going</w>
demonstr ate</w>
D ek
heu tige</w>
U T
woh nen</w>
rä umen</w>
Wün sche</w>
Al li
intellec tual</w>
geh ens
lich sten</w>
Daten schutz
gest altet</w>
b emerk
C er
c ot
au ern</w>
famili ar</w>
compet ent</w>
transpor tation</w>
Mac </w>
wei le</w>
k ir
an cy</w>
a gen</w>
fiz ieren</w>
lok ale</w>
H al
Bal tic</w>
Lu ft</w>
contr ast</w>
pl ays</w>
y m</w>
fra g
Tex te</w>
mon um
da fri
Wei ß
St är
t ack
Ak tion</w>
Sta at
Kil ometer</w>
bestim men</w>
fe ed</w>
vor legen</w>
gebi ete</w>
her z
fir ms</w>
pres s
glob alisation</w>
declar ed</w>
h all</w>
ff er
russ ischen</w>
tim edi
Priv ate</w>
Sub si
n one</w>
en ergi
ru b
si v</w>
surround ings</w>
au ßen</w>
sch einen</w>
nah me
gr ü
G lück
4 7</w>
W ein</w>
transi tion</w>
Zy per
speak er</w>
te ams</w>
yst em</w>
Hau p
up -
l ying</w>
kri ti
Kommission s
Mark tes</w>
förder t</w>
Nor di
A do
st ens</w>
Mobil ität</w>
Appl ause</w>
d ining</w>
drin k</w>
schle cht</w>
li brary</w>
f em
Bo x</w>
high- quality</w>
akzept abel</w>
P et
re ported</w>
Transpor t
Veröffent lichung</w>
V el
justi fied</w>
bi ke</w>
bo und</w>
mark t
erfolgrei che</w>
9 -
gew inn
betri eb
zi ge</w>
st amm
L ev
Ab hän
techni ques</w>
Vorsch lags</w>
me ant</w>
p ed</w>
H ai
ab gestimmt</w>
pre fer</w>
ru g</w>
exper t</w>
perf ekt</w>
in flation</w>
dri ver</w>
collabor ation</w>
O l
ad or</w>
stor ed</w>
subsi diar
ak ter
inv ite</w>
Vor gehen</w>
consider ing</w>
Portu gu
star ts</w>
passen ger</w>
tran satlan
ge zwungen</w>
stru g
F unds</w>
Ro bert</w>
Zentral bank</w>
B ol
sti ll
V ia</w>
Frei heiten</w>
occ ur</w>
B it
Ziel en</w>
sett lement</w>
an er</w>
on ing</w>
peri or</w>
min orities</w>
conclu ded</w>
e astern</w>
perc ent</w>
sho wing</w>
My SQL</w>
st eigen
subsidiar ity</w>
win es</w>
äuß ert</w>
expan sion</w>
Subsi diar
ber aten</w>
Mo s
k amen</w>
eed ed</w>
ge fügt</w>
pos sibly</w>
M -
4 6</w>
Kon figur
val ent</w>
Bi o
Sk ype</w>
direk te</w>
en zi
con tradi
ran g</w>
acc o</w>
a g</w>
H it
Vi et
s ac
bur ger</w>
d less</w>
S emin
credi bility</w>
erinn ert</w>
Grün dung</w>
Stru c
Geh eim
den kt</w>
Tel ek
ein ig</w>
beträ ch
bri tische</w>
St ück</w>
determin ation</w>
clu bs</w>
tour ists</w>
D ü
ass ets</w>
Poli tiken</w>
Brazi l</w>
C N
ou b
remo te</w>
f lights</w>
he ating</w>
tack le</w>
lief ert</w>
Untersuch ungen</w>
a is</w>
h am
US S</w>
person en
Um feld</w>
ra in</w>
verschied en
Tra g
benef ici
S eg
entscheiden de</w>
einhei tlichen</w>
Qu ali
P act</w>
Gerichtsh of</w>
cri mes</w>
docum entation</w>
imm igrants</w>
in en
inhabit ants</w>
beg eist
f lug
c utting</w>
piec es</w>
präsen tieren</w>
configur ation</w>
far m</w>
f rüh
g old</w>
Ac t</w>
Chanc en</w>
res istance</w>
zentr al</w>
Hei m
wid ely</w>
ex por
par tly</w>
Chin as</w>
resp ected</w>
hoff entlich</w>
proz esses</w>
Stu denten</w>
Ar ab</w>
lig ent</w>
conf ron
ori ented</w>
ear th</w>
regar ded</w>
verur teilt</w>
last ing</w>
ta gen</w>
Berei t
Aus gabe</w>
ent -
ges u
gr ant</w>
rap idly</w>
Ver pack
dür fte</w>
A v
uli ert</w>
mas sage</w>
R ek
bed room</w>
or ts</w>
Identi tät</w>
Ver trieb
K ing</w>
Ac tion</w>
l ust</w>
wer tung</w>
bezieh ungen</w>
Besor gnis</w>
äuß ern</w>
ameri ka</w>
A h
g al
m ation</w>
Kon sens</w>
on ien</w>
is lands</w>
fant astic</w>
her itage</w>
Schlaf zimmer</w>
ow ner</w>
zü ge</w>
ro t
ici p
U -B
drück t</w>
new sp
erheb liche</w>
Sp eci
Arbeits markt</w>
I I
str onger</w>
Th omas</w>
in mitten</w>
sa ving</w>
c able</w>
in ts</w>
program ms</w>
wach sen</w>
re main
Def iz
hin zu</w>
constitu tional</w>
A ID
d ating</w>
Re de
gewähr t</w>
educ ational</w>
as sum
s ön
sen sible</w>
ra w</w>
met al</w>
ver dient</w>
M eg
den z</w>
vis ory</w>
organis ieren</w>
me e</w>
lis ts</w>
ö t
er setzt</w>
tor al</w>
assu me</w>
fre m
over come</w>
Sign al</w>
ver halten</w>
wh ol
mot or</w>
UN -
bek ämpfung</w>
tax ation</w>
t ari
loy ment</w>
verk aufen</w>
care er</w>
El ec
bek annte</w>
Hoh en</w>
Einwander ung</w>
vie wed</w>
argum ent</w>
reduz ieren</w>
Son ne</w>
vorhand enen</w>
Sovi et</w>
ro b
j ap
ver an
empf oh
zeich nis</w>
alb um</w>
R und
es ch
Web seiten</w>
em en</w>
re plac
Krä fte</w>
f ur</w>
A sh
after noon</w>
Zw ecke</w>
Portugu ese</w>
val ley</w>
Sp azier
y ers</w>
f ot
high ligh
betri eben</w>
fa vor
Euro pol</w>
trans actions</w>
Aufenth al
mo tiv
strateg ischen</w>
spo ken</w>
S z
basi er
beru ht</w>
Rechn ungsh
sch eme</w>
boo t</w>
Mitarbei tern</w>
größ er</w>
zu fried
eth eless</w>
dep th</w>
event ually</w>
an de</w>
geh enden</w>
it al
Ver sionen</w>
D ynam
beschäf tigen</w>
Ver breitung</w>
einfach er</w>
exc iting</w>
ab gesehen</w>
legitim ate</w>
individu ellen</w>
erst mals</w>
dist ingu
arri ve</w>
Sa una</w>
relax ation</w>
kontak tieren</w>
C ook
außerord entlich</w>
Prei sen</w>
aus sprechen</w>
fes tival</w>
ä r</w>
sti g</w>
Ado be</w>
sta at</w>
L os</w>
Bemerk ung</w>
mari time</w>
be währ
coll ec
non etheless</w>
K i
dau er</w>
gener ated</w>
il d</w>
record ed</w>
di ch</w>
magn ific
ch st
ex it</w>
des ired</w>
ci </w>
is ting</w>
reserv ations</w>
wom an</w>
bo ten</w>
d opp
S ony</w>
c ell
zusammen arbeiten</w>
rech tzei
lä ßt</w>
wir eless</w>
verk auft</w>
el se
emerg ing</w>
f äh
found ation</w>
Studi en</w>
Asi en</w>
A C</w>
Br and
Wer t
liber al</w>
bed rooms</w>
ver hand
l ac
ci ti
chann el</w>
Mar ina</w>
ackno wled
ahr t</w>
groß zü
K er
zu gang</w>
wiederhol en</w>
Lie be</w>
occa sions</w>
satisfac tion</w>
genü gend</w>
Exec utive</w>
5 2</w>
üh r</w>
ange gebenen</w>
Can on</w>
W ich
fas h
F ischer</w>
new ly</w>
ab gesch
Pra gue</w>
K n
Kapit el</w>
E-Ma il-
k a
on ym
fash ion</w>
p unk
Krank heit</w>
j enen</w>
Des k</w>
wissenschaf tliche</w>
l ets</w>
begren zt</w>
M ed
g allery</w>
oh n</w>
adop ting</w>
contain ing</w>
sel be</w>
A ward</w>
encour aging</w>
Mex ico</w>
amet ers</w>
bek räf
Win d
correc tly</w>
. org</w>
C ur
ag ers</w>
hin aus
winn ing</w>
Israel i</w>
an hand</w>
Autom obil
K yo
verantwor tungs
verbin den</w>
vis ited</w>
N ic
der er</w>
profession als</w>
T op
tradition elle</w>
b ou
ser s</w>
z ungen</w>
l ots</w>
ab sen
ac ted</w>
Kontrol len</w>
effek tiv</w>
sp on
awar ded</w>
с т
mat ch</w>
hier für</w>
PP E-
br ut
sen ding</w>
K urs</w>
supp liers</w>
mi et
F err
einger eicht</w>
Balk on</w>
vor stellen</w>
is te</w>
inklu sive</w>
eb ung</w>
unver züglich</w>
y outh</w>
An schluss</w>
Erzeu gnisse</w>
m ol
Ar t
ähr t</w>
cent ur
is mus
d eine</w>
f loo
statt dessen</w>
iel d</w>
Energi ever
Sor gen</w>
chann els</w>
viel es</w>
ten nis</w>
Wer ke</w>
entwick elte</w>
vor ran
Vor stellung</w>
wher eas</w>
ti an</w>
zi el</w>
Z eu
certi fic
fäl lig</w>
ver stärken</w>
destru ction</w>
Rep res
stu dio</w>
mittler weile</w>
schl ag
constitu tion</w>
ähn liche</w>
wid met</w>
Hung ary</w>
pu ts</w>
gel n</w>
correspon ding</w>
func tional</w>
Stock hol
Fr au
Men sch
15 .</w>
h ü
sk o
auf s</w>
ehol ders</w>
Gew icht</w>
shar es</w>
B IP</w>
decisi ve</w>
H an
bot tom</w>
else where</w>
he at</w>
12 .
soli d</w>
shar ing</w>
gra f
Nach richt</w>
vis iting</w>
F as
N ig
ck er
Tre k</w>
leh nung</w>
H all</w>
re placed</w>
New sletter</w>
System en</w>
vor bereitet</w>
plen ary</w>
appear ance</w>
m ein
si erte</w>
Kon zep
Besch luss</w>
spra ch</w>
gebi eten</w>
5 1</w>
an gewand
zei ge</w>
ber ühr
quar ter</w>
Kyo to</w>
M B</w>
D enk
Sek toren</w>
französ ische</w>
Vor sitz</w>
wa ff
sich eren</w>
net er</w>
Bel ast
subsi di
behavi our</w>
n omin
loss es</w>
d ol
Arz nei
be u
B and</w>
er ischen</w>
bel ast
7 2</w>
Ein w
prepar ing</w>
Budap est</w>
citi zen</w>
N I</w>
8 6</w>
provi ders</w>
2. 0</w>
herr scht</w>
IC H
Balk ans</w>
R oom</w>
Kon stru
interpre tation</w>
Tai wan</w>
zü gigkeit</w>
finanz iert</w>
de partment</w>
look ed</w>
Bedro hung</w>
Schluss folgerungen</w>
ti ere</w>
Au ge</w>
ex ports</w>
ig sten</w>
jen er</w>
identi fied</w>
Prot ection</w>
ban k
Schul en</w>
े </w>
di gn
Ch urch</w>
a gem
ist a</w>
wür digkeit</w>
ehm ern</w>
su ites</w>
er schi
L t
gh ter</w>
person nel</w>
manufactur er</w>
offizi ellen</w>
end ung</w>
Mo z
ti que</w>
Comp uter
renov ated</w>
Con gress</w>
schrift liche</w>
D al
pf lan
anc ing</w>
ser ving</w>
ven tion
spann ung</w>
entran ce</w>
z ten</w>
enth alt</w>
Stand or
stre ben</w>
erfolgrei chen</w>
regar dless</w>
st em</w>
mi x</w>
S V</w>
compon ent</w>
volun tary</w>
Bereit stellung</w>
li ft</w>
cu ts</w>
er lebt</w>
glau b
t liches</w>
Bo sn
appl ying</w>
0 4</w>
Sit u
Ear th</w>
ban king</w>
Fri day</w>
gew onnen</w>
g age</w>
tro ub
spar en</w>
betei ligen</w>
Belgi um</w>
ens ures</w>
schätz ung</w>
Städ ten</w>
pl ate</w>
ro ck</w>
inclu sion</w>
vac ation</w>
E B
ein m
entscheiden der</w>
up dates</w>
her zustellen</w>
x es</w>
Pro fession
Z ür
ro utes</w>
Re duz
Z ul
P ay
cro ss</w>
Sch lu
ex emp
distri buted</w>
aus ser
wer ken</w>
P lätz
T enn
ed -
hän gen</w>
bei getragen</w>
defic it</w>
rück e</w>
Eisen bahn
cont ex
sim ult
Zw ischen
vulner able</w>
T est</w>
schn ei
f un
un be
gew issen</w>
th ly</w>
bestimm ter</w>
ruhi g</w>
O ne</w>
Al le</w>
Rechts grundlage</w>
T ru
R est</w>
Ern ähr
es cap
fer tigen</w>
R om</w>
mp ft</w>
E dition</w>
ling s
Män nern</w>
anwes end</w>
L ö
d ation</w>
K as
ad o</w>
gh ly</w>
groß em</w>
arti st</w>
exam ine</w>
Mar ke</w>
Malt a</w>
propos es</w>
- based</w>
exc essive</w>
F ei
proc eed</w>
Joh ann
G las
m ern</w>
di vision</w>
gef angen</w>
B lack</w>
I V
addres ses</w>
stan de</w>
steh e</w>
propos ing</w>
balcon y</w>
ro s</w>
it a</w>
du l</w>
O ld</w>
Pak ete</w>
to wns</w>
gebo ten</w>
them e</w>
enh ance</w>
besch rieben</w>
Ha ar
inter ior</w>
Kon sult
th es
Kur z
shi pping</w>
Er stellung</w>
dies bezüglich</w>
Vor der
origin ally</w>
Katastro phe</w>
mo ther</w>
erzeu gt</w>
elektron ischen</w>
Ko oper
bel angt</w>
Benutz er
im por
cas h</w>
Wohl stand</w>
su gar</w>
sol ches</w>
P R
C ri
ri ebe</w>
Th urs
V AT</w>
Minister p
facil ity</w>
b sp
Er wä
st ück</w>
schri ft</w>
plan et</w>
ge kenn
ver mitteln</w>
interess ant</w>
Fre unden</w>
K auf</w>
la ys</w>
in k</w>
Genehm igung</w>
s op
CO M</w>
kon fron
An sichten</w>
st olz</w>
F ris
en kt</w>
Kon text</w>
best ellen</w>
st euer</w>
Mang el</w>
sch ed
M all
im pose</w>
Waff en
bl ing</w>
every body</w>
einge halten</w>
quar ters</w>
avo i
kehr t</w>
we ge</w>
integri ert</w>
Ass embly</w>
lan ce</w>
ehr t</w>
geb rau
exc eption</w>
Besch lüsse</w>
fol glich</w>
res ear
dustri e</w>
pack aging</w>
Ham as</w>
Hung arian</w>
cir cul
stra fe</w>
S atur
Konsequ enzen</w>
en ger</w>
zu lässi
Geschä ft
J ac
inv est</w>
r on</w>
gener ate</w>
Sta ates</w>
Bar s</w>
mensch liche</w>
ma kers</w>
Ein heit</w>
Medi en
S M
län g
shor t-
an wen
sel s</w>
il ed</w>
Nor thern</w>
inves tieren</w>
langfris tig</w>
komm un
pro ven</w>
gef äl
f en
zu tage</w>
am az
in k
A re
ru f</w>
zi elen</w>
S ha
isten z</w>
fit ness</w>
au to
kl eines</w>
extra ordinary</w>
Struc tural</w>
pol y
ar my</w>
k lim
ber at
re cip
subst ance</w>
Regier ungsch
F a
mil k</w>
Wi r</w>
imag ine</w>
ab use</w>
dr ing
lo unge</w>
tob acco</w>
s man</w>
Pres s</w>
Mis sion</w>
Lissab on-
host el</w>
pl or
suff er</w>
D ach
sta un
In f
optim ale</w>
b attle</w>
bedeut ende</w>
Break fast</w>
dis k</w>
con fer
enst adt</w>
fil ms</w>
fil ter</w>
beh örde</w>
behand lung</w>
electri c</w>
beantwor ten</w>
§ </w>
Z one</w>
Vide o
p ac
al itäten</w>
individu ell</w>
ver än
bed ing
Distri bution</w>
cour ts</w>
ab ol
ell ers</w>
cor ner</w>
wiederhol t</w>
sligh tly</w>
T on
cour age</w>
zi el
accur ate</w>
decor ated</w>
Viz ep
bereit gestellt</w>
an belangt</w>
ap p</w>
Polizei </w>
appoin tment</w>
S icherung</w>
W LAN</w>
Ein kommen</w>
off ic
wirtschaf tlich</w>
attemp ts</w>
cos y</w>
beob achten</w>
E ch
H en
st ag
ger eg
Bild schir
e ties</w>
zu ständig</w>
sav ings</w>
Glaub würdigkeit</w>
Ber n
ü bt</w>
fer nen</w>
hin gegen</w>
less ons</w>
her vor</w>
car rying</w>
pl enty</w>
er hielt</w>
sozi aler</w>
poli tically</w>
E W
fu sion</w>
vor anzu
ein bezogen</w>
Pot enzi
o tive</w>
Euro zone</w>
on e
Ungar n</w>
Gol d
complic ated</w>
R in
il le</w>
auth en
Dem on
pat ent</w>
b atter
dom ain</w>
Über legungen</w>
wei len</w>
countr y
all zu</w>
An la
du ties</w>
Ä gyp
sec ret</w>
über sch
5 4</w>
li ger</w>
of t
gri ffe</w>
gesund heit</w>
am b
absen ce</w>
re min
berei chen</w>
4- 0
Posi tionen</w>
hous ing</w>
Wachst ums
L oun
speich ern</w>
ange geben</w>
Mark eting</w>
í </w>
z onen</w>
defin itely</w>
kri eg
Is lam</w>
k ö
gr ati
vi erte</w>
lab el</w>
W äl
ge fallen</w>
sch e
D auer</w>
Betra g</w>
styl ish</w>
E E
Eng ine
Atlan tic</w>
for ests</w>
effizi ent</w>
sol ely</w>
demo kraten</w>
direc ted</w>
pic tur
ger ät</w>
E d
Kolleg in</w>
Vier tel</w>
represent ation</w>
ann i
star s</w>
ra ising</w>
Zivil gesellschaft</w>
D res
weit gehend</w>
ge führten</w>
Inter essen
hervor ge
einzig ar
ti s
St ei
n ör
mil es</w>
ll er</w>
Mr d.</w>
Geb ur
ap s</w>
dru g</w>
Bud gets</w>
Gegen stand</w>
am ed</w>
Woh nung</w>
supp lies</w>
Tour isten</w>
concep ts</w>
ni er</w>
ausge zeichnet</w>
great ly</w>
supp lier</w>
el i
be ut
tri al</w>
stra h
top ics</w>
M ei
r ental</w>
vir tual</w>
f li
sub jects</w>
und oub
Ger ech
ier tes</w>
conn ect</w>
lü ssel
den de</w>
iz za</w>
port al</w>
ur teilung</w>
f ans</w>
Proz esse</w>
Lat e
Lief erung</w>
us ern</w>
s .com</w>
gen ehm
gel ingt</w>
is men</w>
pursu e</w>
6 .</w>
Apart ment</w>
Mor gen</w>
Bulg arien</w>
Li fe</w>
ali for
N os</w>
ein zur
T reib
blo g</w>
verbin det</w>
sugges tions</w>
einzig artigen</w>
ch es
Vor haben</w>
fu er</w>
V ater</w>
im ports</w>
Up date</w>
fl at</w>
coll ap
Musi c</w>
em b
lü ck</w>
R ati
Kon to</w>
m use
gest attet</w>
Maastr icht</w>
lang sam</w>
harmon isation</w>
Gewähr leistung</w>
Thurs day</w>
t ö
Kor ruption</w>
alis ierten</w>
17 .</w>
langfris tige</w>
far ming</w>
flo ws</w>
C l
ge o
S ev
hei m
in put</w>
stra ight</w>
Ger ät</w>
in sofern</w>
Ein wohner</w>
B C</w>
off ene</w>
Salz burg</w>
rec y
Ver zö
mittl eren</w>
won der</w>
wirk sam
e z</w>
J ames</w>
z -
ul ated</w>
ut tle</w>
Mod elle</w>
ges s
tim et
cons ent</w>
In tel
argum ents</w>
en abled</w>
-F i</w>
Cli ent</w>
verb undenen</w>
E X
si ghts</w>
gestell te</w>
mar ri
every day</w>
reduz iert</w>
adul ts</w>
qu is
B rei
er setzen</w>
Tran sa
speci fied</w>
we ar</w>
Reduz ierung</w>
ausger ichtet</w>
gebil det</w>
Cust om
ni veau</w>
wunder schönen</w>
refer endum</w>
í a</w>
Gra d</w>
ver sichern</w>
et ter</w>
problem e</w>
spectac ular</w>
T om
en ne</w>
äum t</w>
p ush</w>
B y
g ained</w>
bab we</w>
recei ving</w>
Ent lastung</w>
u a</w>
F ru
Sch en
P ort</w>
ab sor
ger äte</w>
Dat ei
ge plan
ri c</w>
sch m
gr ös
ren owned</w>
über greif
tr end</w>
difficul ty</w>
ent rep
Kultur en</w>
N O
ma chten</w>
Ver trau
Qu ad
Gef ahren</w>
ef t</w>
beein träch
auf treten</w>
mus sten</w>
Dol om
isl am
20 -
är kt</w>
anges ehen</w>
verkehr s</w>
bet reiben</w>
mo dell</w>
f es</w>
C S</w>
dep end</w>
prosper ity</w>
Kroati en</w>
D N
7 1</w>
relig ion</w>
Schlü ssel</w>
four th</w>
entsch lossen</w>
on er</w>
wei ch
s -</w>
zukünf tigen</w>
le u
co w</w>
gün s
is ted</w>
introduc ing</w>
compar ison</w>
glie der</w>
ber gen</w>
S ie
Nach hal
An lass</w>
militär ische</w>
Brasi lien</w>
continu ous</w>
C F
lie ber</w>
hol ds</w>
Elek tro
Kontak te</w>
depar ture</w>
weis ungen</w>
größer es</w>
Auf sichts
G -
künf tige</w>
L as</w>
Land es
Internet -
dis abled</w>
LA F</w>
Gaz a</w>
R ef
direc tory</w>
Stoff e</w>
7 .</w>
16 .</w>
lauf enden</w>
en abling</w>
ag ent
Rech t
Schi ffe</w>
ver teilt</w>
rei ter
tradi tions</w>
unver gess
inter nen</w>
pre t
uni versity</w>
jed enfalls</w>
magnific ent</w>
pay ing</w>
satisfac tory</w>
Prak tiken</w>
f a</w>
revol ution
fer tig</w>
zentr en</w>
ro ot</w>
verfüg baren</w>
co operate</w>
IT -
necess arily</w>
d ance</w>
tra ge
s elling</w>
Völk er
ge dacht</w>
9 2</w>
hand le</w>
accord ingly</w>
sugges ted</w>
C le
Eigent um</w>
gesch ichte</w>
s .</w>
Lebens mittel</w>
st sein</w>
sc ene</w>
Er füllung</w>
E p
th and
sk a</w>
pl atte</w>
lab elling</w>
umfang reiche</w>
H i
it ra
fin ish</w>
einzu setzen</w>
gar dens</w>
utt gar
port folio</w>
Sp aß</w>
betreff end</w>
promis ed</w>
Dom in
Vor aussch
Comm un
hund red</w>
be endet</w>
be vor
un ited</w>
Fir st</w>
w ahl
BM W</w>
G ut
at tri
Wi -Fi</w>
al ties</w>
Bo ot
Energi en</w>
unterst reichen</w>
6 8</w>
ri ft
ar ding</w>
fant as
vertei digen</w>
Moder n
moment an</w>
Ver lust</w>
im port</w>
Ent fern
erkenn t</w>
sover eign
over view</w>
ordn ungen</w>
staat lichkeit</w>
Al ger
Proz esses</w>
behaup ten</w>
schi eben</w>
Kop f</w>
thous and</w>
G au
g am
ver mut
prev enting</w>
konfron tiert</w>
Bo den
Ver trag
S timm
Gef än
signific ance</w>
en cing</w>
St uttgar
F ig
ev al</w>
geh ol
ch amp
low ak
fr ame</w>
oblig ed</w>
constitu te</w>
ränk ung</w>
Wirtschafts wachstum</w>
L as
ern e</w>
soli di
ut ation</w>
ver län
unic ations</w>
S ad
succ eed</w>
arti stic</w>
Stras bourg</w>
führ ungs
ausge geben</w>
militär ischen</w>
Verletz ung</w>
Gerech tigkeit</w>
negoti ating</w>
aktivi ert</w>
inv ited</w>
al located</w>
per mitted</w>
dau ert</w>
pati ent</w>
hochwer tige</w>
be kommt</w>
ha ir</w>
Bud get</w>
Net work</w>
institution elle</w>
gemein schaftlichen</w>
in ev
well- known</w>
ange passt</w>
philosoph y</w>
Mill enn
soci eties</w>
jur is
au ff
Sp ace</w>
W ill
gesetz ten</w>
af for
zu lassen</w>
un zur
effizi enz</w>
Konkur ren
un for
fish er
s low</w>
Über gangs
freed oms</w>
projek te</w>
m -
ent gegen</w>
ik er</w>
Organ e</w>
auth ori
vorzu legen</w>
centur ies</w>
Slo ven
the ory</w>
IN G</w>
du mp
M ut</w>
F al
environ ment
personen bezo
y o</w>
konzentri ert</w>
Su iten</w>
The ater</w>
unterschei den</w>
gn is
super vision</w>
wirk same</w>
tä glichen</w>
Ab en
lau b</w>
p ing</w>
ver i
p ure</w>
strateg ische</w>
N on-
erhö h
Park platz</w>
ehr ten</w>
l y-
ab stimmen</w>
n i</w>
unabhängi gen</w>
illeg alen</w>
Ch eck-
x el</w>
Ger icht</w>
organ ic</w>
prak tische</w>
simult ane
Ex change</w>
si t</w>
re vision</w>
n y</w>
zukünf tige</w>
a w
ech ische</w>
Res ol
ful fil</w>
ge geben
eu ch
ar gu
best ell
grün den</w>
la stly</w>
Perspek tive</w>
lay er</w>
8 .</w>
we ak</w>
hy dro
spo ke</w>
forc ement</w>
C R
e able</w>
rel ative</w>
j unk
wirtschaf ten</w>
norm ally</w>
Kör per
z in</w>
Americ ans</w>
unter zeichnet</w>
Audi tors</w>
undoub tedly</w>
lo ck</w>
spre che</w>
drin ks</w>
M erc
Fahr zeuge</w>
leg ally</w>
ri ffe</w>
lo vely</w>
Re zeption</w>
confir mation</w>
Situ ationen</w>
sto ßen</w>
Puer to</w>
boo k
vorgeschla gene</w>
Menü </w>
mitt eilen</w>
perio ds</w>
G lück</w>
Ra dio</w>
p m</w>
Val ley</w>
Deb i
ungs verfahren</w>
Vide os</w>
Egyp t</w>
wel com
sum m
Di kt
az za</w>
gehens weise</w>
speci alist</w>
ar med</w>
Donn er
s ung</w>
forth coming</w>
klär ung</w>
har dly</w>
estim ated</w>
ac tors</w>
w rote</w>
Ma il</w>
E M</w>
sustain ability</w>
NG Os</w>
sel ten</w>
unabhängi ge</w>
6 6</w>
effizi ente</w>
Ima ge</w>
H under
Am t</w>
test ed</w>
ski ing</w>
an zen</w>
Person al
as en</w>
produc tivity</w>
n a
ub </w>
as es</w>
program ming</w>
t less</w>
Provin z</w>
Kom pl
tu ally</w>
campa ign
l assung</w>
ol o</w>
Bro wser</w>
u el</w>
P fer
der e</w>
A D</w>
an gebracht</w>
ref ers</w>
Weiter en</w>
Ver einfach
Tä tigkeiten</w>
vorgeseh enen</w>
ati </w>
Zu sch
fähi gen</w>
Zustän digkeit</w>
Num mer</w>
public ation</w>
er gibt</w>
es que</w>
an schließen</w>
sicht bar</w>
Geschm ack</w>
et ab
coun ts</w>
mi en</w>
no tic
ari ties</w>
Gr an</w>
Wider spruch</w>
Red ner</w>
ris t
a ward</w>
Ver arbeitung</w>
Islam ic</w>
E i
ex trac
Schi ff</w>
Kris en
U. S.</w>
Prof essor</w>
P y
bisheri gen</w>
M O
ä fen</w>
she et</w>
fir mly</w>
Übernach tung</w>
Sch ne
Aut or
ver dienen</w>
beh oben</w>
gr enze</w>
enh anced</w>
zi vil
Ger man
angebo t</w>
E V
E s</w>
ge pf
dest in
Mob ile</w>
samm eln</w>
Belgi en</w>
Nachbar n</w>
func tionality</w>
in hal
rei cher</w>
anzu zeigen</w>
P RO
dic tion</w>
leh nen</w>
colour s</w>
welcom ed</w>
F eld</w>
mi d-
unter liegen</w>
An stieg</w>
leav es</w>
Grü nen</w>
proceed ings</w>
gar ten</w>
re marks</w>
instruc tions</w>
unzur eich
N eben
ger ing</w>
bew u
contri buted</w>
barri ers</w>
acc eler
5 6</w>
ange kün
wieg end</w>
M ärkten</w>
al ong
Ter rit
Fin land</w>
de posit</w>
Ab lehnung</w>
sch em</w>
las h
sto cks</w>
Geh minuten</w>
Per sön
in j
oper ative</w>
k örper
W eg
b ungen</w>
th umb
z ed
voll ständigen</w>
Tha il
be ur
A R</w>
hil frei
P läne</w>
distri but
mod ules</w>
pos ing</w>
ir ing</w>
wa ffen</w>
o zone</w>
Kon ver
Im pl
über prüft</w>
destro yed</w>
T own</w>
natür liche</w>
win dows</w>
eri ode</w>
en em
m ass
leg te</w>
un like</w>
str onom
Soci alist</w>
Stro m
besonder er</w>
herunter laden</w>
empf angen</w>
realis e</w>
safegu ard</w>
air -
S A</w>
EC B</w>
po t</w>
abil ität</w>
s q
b ann
obstac les</w>
ir s</w>
10 0
lat t</w>
stre am</w>
bar es</w>
sy mbol</w>
stat e-
ar ise</w>
bein gs</w>
gewähr en</w>
indic ate</w>
coordin ated</w>
Kommission spräsi
vill ages</w>
Aus flüge</w>
wi es
geb eten</w>
kön nt</w>
wech sel</w>
b emer
u pper</w>
unfor get
vers ary</w>
t ables</w>
Krieg s
si erten</w>
Beh inder
comb ine</w>
gemein schaft</w>
suff ered</w>
endor se</w>
R ö
Frei zügigkeit</w>
A F
itt ed</w>
enh aus</w>
accept ance</w>
z auber
Regierungsch efs</w>
I W
ab sur
am t</w>
t elec
F ax</w>
dank bar</w>
Sp ir
u ph
d able</w>
konkre t</w>
Verk ehr
wa ve</w>
Donner stag</w>
L O
Sp eich
k illed</w>
Bevölk erungs
k el
Pat ri
may be</w>
spar tei</w>
kontrol lieren</w>
Ser bia</w>
bra chte</w>
vor liegende</w>
öff nung</w>
Veränder ung</w>
ed y</w>
J ung
restric ted</w>
recogn ized</w>
5 3</w>
Lat ein
be völk
n am</w>
Gemein schaf
Tr au
Aktionsp lan</w>
ed back</w>
Sa chen</w>
bel ief</w>
L ok
Er wer
ast er</w>
AID S</w>
versi ties</w>
Berlin er</w>
Zei ch
Char les</w>
week end</w>
verwal tung</w>
er freut</w>
por ation</w>
mi th
ern t</w>
unn y</w>
ar bit
am i</w>
Frei tag</w>
Mut ter
Gemein de</w>
bud gets</w>
geprä gt</w>
Haushaltsp lan</w>
P O
Best ä
par ameters</w>
Vor lage</w>
cr yp
P lus</w>
C it
sever e</w>
bon us</w>
hervorge hoben</w>
Aus maß</w>
bet ten</w>
ger aten</w>
Mon it
Absch affung</w>
ex u
sch em
st ages</w>
disa sters</w>
Br un
Zei tung</w>
ade my</w>
00 1</w>
angeb ot
spieg elt</w>
Geschä ft</w>
dienst leistungen</w>
Bör se</w>
gleich ermaßen</w>
E I
sec tions</w>
man aging</w>
co ol
luxur iö
r are</w>
sp here</w>
Ma ur
Tra ining</w>
Resp ekt</w>
hom es</w>
ph arm
along side</w>
einhei tliche</w>
ernsthaf t</w>
M ir
Gesch le
öffent lich</w>
in folge</w>
tac kl
enthal tenen</w>
F ü
tri ps</w>
g ap</w>
politi sches</w>
explo itation</w>
err ors</w>
Finanz krise</w>
Flücht linge</w>
Befu gnisse</w>
sup posed</w>
bür ger</w>
-Sterne- Hotel</w>
er ce</w>
h ast</w>
sho t</w>
conven tional</w>
er wer
tr ends</w>
s ach
kl ein</w>
Ne ws</w>
mis sing</w>
humanit äre</w>
c ells</w>
fe es</w>
wach senden</w>
in er
um p</w>
exc ur
ge plant</w>
Binnenmark tes</w>
se -
Er inn
schutz es</w>
ves sels</w>
remain ed</w>
dar gestellt</w>
fu hr</w>
or ama</w>
Gleich stellung</w>
har t</w>
mo vements</w>
Agri culture</w>
em m
La w</w>
re mark
Eben en</w>
vereinbar t</w>
consider ably</w>
viol ations</w>
jet zigen</w>
ä le</w>
gro sse</w>
Tex t
erwäh nen</w>
Ver halten
St ability</w>
ran ging</w>
App lik
di ox
no tes</w>
Vol kes</w>
gui ded</w>
po t
investig ation</w>
ci an</w>
dri ven</w>
hear ing</w>
deli ber
chec ks</w>
ä mpft</w>
ap ers</w>
ans wer
Bef eh
vier tel</w>
zu gr
S har
To ols</w>
Feder ation</w>
expl ained</w>
Vic e-
fai th</w>
vor bei</w>
alis e</w>
dis cre
letz ter</w>
exclu sion</w>
Ar mee</w>
Betei ligten</w>
di n</w>
B lan
enk ung</w>
Abhän gigkeit</w>
ri de</w>
par liament</w>
contri but
ada pt</w>
Ur heber
In fo
refl ected</w>
um zu
I ran
ssi g</w>
Ger ichts
ver boten</w>
B ang
k tions
Be für
Voraussch au</w>
ar ity</w>
Schwei zer</w>
enter prise</w>
4 0
reg ret
Feh ler
dre am</w>
adap ted</w>
5 9</w>
ill ar</w>
so genannten</w>
Get rän
country side</w>
4 ,
hervorra genden</w>
nach drücklich</w>
N ice</w>
r or</w>
ätz en</w>
ti ef</w>
canc er</w>
trav elling</w>
cl asses</w>
l unch</w>
A z
bestimm ungen</w>
men ade</w>
uni versities</w>
k üh
th ers</w>
A sian</w>
bege g
por tu
L icht
sa ved</w>
13 .</w>
refl ects</w>
l ers</w>
rä um
Bet ten</w>
Inform ation
UN ES
Führ er</w>
G or
kateg orien</w>
norm alen</w>
hoh em</w>
muse ums</w>
metho den</w>
Y ear</w>
über ein
Mon day</w>
CH F</w>
St euerung</w>
wi ce</w>
Berich ten</w>
An kunft</w>
G ames</w>
Staats an
D ritten</w>
Qu ellen</w>
design s</w>
beauftrag ten</w>
be danken</w>
fik ation</w>
consul ting</w>
kor rig
ex zell
10 .</w>
Gar den</w>
AC P</w>
internation ally</w>
pan oram
ge fragt</w>
über aus</w>
trans mission</w>
produz ieren</w>
sch reck
Frühstücks buffet</w>
wh en
comp act</w>
Zah lungen</w>
gewünsch ten</w>
f ährt</w>
pri me</w>
Amend ments</w>
beg riffen</w>
nieder län
subsequ ent</w>
über ein</w>
Po wer</w>
exclu ded</w>
kon figur
au stausch</w>
besch ränken</w>
Zu g</w>
mun icip
aktu ell</w>
wahr en</w>
Play a</w>
Sch rift
är ten</w>
ß ten</w>
Institu t</w>
unter sucht</w>
ga ther
f anden</w>
bud sman</w>
Konflik te</w>
gener ations</w>
Hand els</w>
Met ro
flä chen</w>
antwor ten</w>
Hei zung</w>
Sch loss</w>
Georgi a</w>
exter nen</w>
Aben dessen</w>
Liz enz
schn ellen</w>
zusammen zu
Leg al</w>
conc er
N am
Commission ers</w>
Imp ul
Bür o</w>
ökonom ischen</w>
alifor n
Ti bet</w>
Sun day</w>
when ever</w>
er enden</w>
z eln</w>
fest zulegen</w>
Erinn erung</w>
ak s</w>
pro min
foot ball</w>
del icious</w>
dign ity</w>
J ack
in ess</w>
elek tr
künst ler
r d</w>
M ah
Ma j
so unds</w>
wi ld</w>
K ub
ar tet</w>
lie ß
as sen
sorg ungs
än ge</w>
b rech
j unc
mag ne
luxur ious</w>
besor gt</w>
Ber g</w>
st ör
z iger</w>
12 .</w>
resour ce</w>
restruc turing</w>
unforget table</w>
B ut
stan z</w>
ent ary</w>
leich ter</w>
wor thy</w>
proto col</w>
Krimin alität</w>
C up</w>
Rom an
Kan ada</w>
Г </w>
zugr unde</w>
coll ected</w>
einge gangen</w>
ts etzung</w>
Rück kehr</w>
b len</w>
ain ing</w>
spir it
A 5-0
G am
im men
n ut
cl ause</w>
sp ei
S our
he ut
stre t
geleg te</w>
reli ability</w>
freund lichen</w>
hei ßen</w>
Con su
um setzen</w>
charac ters</w>
gesch m
Al ter
well ness</w>
umfas send</w>
Ge werk
entru ms</w>
erweiter n</w>
Blo g</w>
Ur sachen</w>
clean ing</w>
ent täu
bil d
C he
analy se</w>
Nahrungs mittel
beglei tet</w>
eh </w>
ali tion</w>
b enden</w>
l us
stei gt</w>
kompl ette</w>
erst klassi
auf gebaut</w>
Stockhol m</w>
war ning</w>
zurück zuführen</w>
Ä u
sup er</w>
gesch ätz
H- 0
ber ich
D än
s ought</w>
einzu führen</w>
unterschied lich</w>
wel comes</w>
ergän zt</w>
Cast le</w>
Stand ort</w>
geeign ete</w>
sop his
Wik itra
er fordern</w>
kor rekt</w>
fisher men</w>
Kön ig</w>
concentr ate</w>
Stern e</w>
Masch ine</w>
schwer en</w>
un ruh
appro ve</w>
pen alty</w>
phen omen
S L
p ush
Sain t</w>
ö tz
ent deckt</w>
b ach</w>
Mark en</w>
ein gestellt</w>
sovereign ty</w>
sp ät
exis tiert</w>
S w
her stellung</w>
Ver trages</w>
target ed</w>
ek tion
Ph ilosoph
Gesch windigkeit</w>
intel ligent</w>
For mu
gener ell</w>
krä f
Taus ende</w>
H O</w>
Lei tung</w>
lös ungen</w>
ass ess</w>
Ex p
Groß teil</w>
Ver teilung</w>
G ang</w>
di alog</w>
fest gelegten</w>
believ es</w>
Rechts staatlichkeit</w>
arbei ts
Is lands</w>
arbei tete</w>
Agent uren</w>
bsp </w>
O t
F ish
inform ationen</w>
geni essen</w>
V ul
st ür
h l</w>
under taken</w>
Fak tor</w>
essen tially</w>
a qu
heut zutage</w>
ro ots</w>
sho wed</w>
brief ly</w>
Volks gesundheit</w>
p ed
tr o</w>
democ rati
offizi elle</w>
L ay
Wor t
strength ened</w>
Alli anz</w>
sched ul
5 8</w>
li ved</w>
re action</w>
be zahlt</w>
ei gh
N at
bour hood</w>
anti cip
po ols</w>
won ach</w>
Samm lung</w>
C P
it ar
st ing</w>
z ieren</w>
Gen eva</w>
an erk
sor y</w>
hei t
un fair</w>
fem ale</w>
ess ed</w>
dis krimin
sto ck
comp uters</w>
athed ral</w>
C ir
pra g
Loun ge</w>
Su dan</w>
Arbeitsp latz</w>
f ing</w>
ein sch
reich s</w>
ge äußert</w>
sophis tic
perf ekte</w>
feder al</w>
ö r</w>
6 7</w>
is lat
tre e</w>
Re z
pres sed</w>
kom fortable</w>
ber ichten</w>
Dar stellung</w>
n ische</w>
gest altung</w>
Si ed
Bud d
Balk an</w>
r t</w>
W är
ris es</w>
em bar
restor e</w>
Bran che</w>
Ex tre
Jahrzeh nten</w>
L ad
Fr ist</w>
b utes</w>
let ters</w>
fair ly</w>
klass ischen</w>
lä t
abl eh
no body</w>
Dre h
arri ved</w>
po lic
A M</w>
tiv itäten</w>
k i
gi o</w>
blo cks</w>
S mo
rä u
EU -R
p her
ge wich
Uni vers
re construction</w>
sen ken</w>
bro w
jo ining</w>
wis sen
S ohn</w>
n bsp</w>
F ood</w>
vorsch läge</w>
ph ones</w>
S lowak
eb o
Mi ß
non- smoking</w>
A s</w>
th u
n ine</w>
mi eten</w>
t ab
shor tly</w>
wes enheit</w>
kern el</w>
Lu f
Pass wort</w>
Reser vierung</w>
dec ade</w>
ver weisen</w>
genau e</w>
bir th</w>
Qu elle</w>
g lo
P hän
gest ärkt</w>
m l</w>
Aut onom
Rech ten</w>
beh err
initi ally</w>
Öff nung</w>
Kredit karte</w>
N avig
ange wendet</w>
empfoh len</w>
ig ar
E duc
S how</w>
de fiz
I ON</w>
gesetz lichen</w>
scienti sts</w>
verhand lungen</w>
H us
gesch äf
Stim men</w>
ten der</w>
T rin
flu g</w>
Bl ut
qu iry</w>
t ons</w>
vor nehmen</w>
prin ted</w>
musi cal</w>
comp ul
Rei sen</w>
14 .</w>
Aus einander
symp ath
a sion</w>
transfer red</w>
Nach t
Berei tschaft</w>
inf rin
n ers</w>
s entation</w>
ec ological</w>
- K
statt findet</w>
canc ell
sto ß</w>
I P-
Val en
St unden
f illing</w>
sen z</w>
8 8</w>
dec line</w>
process ed</w>
qualit ativ</w>
x e</w>
gan z
Hoch schul
C AP</w>
Yu gosla
Re port</w>
Op position</w>
stamm t</w>
portu gi
direc tor</w>
enter ing</w>
sit zes</w>
As sozi
Pap ier</w>
k einem</w>
sicher gestellt</w>
nütz lich</w>
ss on</w>
si v
Fahr t</w>
Cap tain</w>
Ent spannung</w>
Proz ess
stim ul
deep ly</w>
acci dent</w>
be enden</w>
anz un
ling u
zo g</w>
cul tures</w>
9 3</w>
dr y</w>
r h
T or</w>
wal d</w>
Par ameter</w>
ck en
M A</w>
mis sions</w>
di t</w>
Ver mö
offen bar</w>
F or</w>
re pub
per cent
Gener ationen</w>
Abge ord
eri en</w>
supp lied</w>
BS E</w>
ass embly</w>
Ver lauf</w>
Ma in</w>
fi x</w>
R ab
un ning</w>
Gel der</w>
Vereinfach ung</w>
be aring</w>
tion ary</w>
n ail</w>
gegenwär tige</w>
st atisti
Mall orca</w>
v a
post p
Mehr wert
mutz ung</w>
Thail and</w>
U C
ा </w>
V .</w>
vi </w>
bi </w>
Or te</w>
aus gaben</w>
rechtzei tig</w>
fes ten</w>
to ward</w>
M A
ad ding</w>
G ast</w>
el em
Host el</w>
Wochen ende</w>
pro ch
c lin
B üh
digit alen</w>
Niederlan den</w>
p -
ther mal</w>
col on
enor me</w>
Eing ang</w>
sau ber</w>
Umwelt schutz</w>
Deb atten</w>
Ex plor
Ner o</w>
Medi kam
Z un
ich ert</w>
dist or
prof its</w>
F öder
я </w>
ir re
ist ant</w>
pres sing</w>
vide os</w>
ord net</w>
yp en</w>
teil s</w>
lear ned</w>
Schwi m
Schön heit</w>
türk ischen</w>
oft mals</w>
Wel thand
Bes ei
l ec
ste am</w>
Invest oren</w>
neighbo uring</w>
Stär ke</w>
re gu
w ör
g li
Ma ster</w>
qui red</w>
se kre
Berichterstat ters</w>
Viet nam</w>
5 7</w>
prosp ects</w>
&apos; m</w>
thre ats</w>
i Phone</w>
Mut ter</w>
Be wus
Debi an-
stärk ere</w>
Wirtschafts krise</w>
HT ML</w>
it en
su it</w>
R ap
ün s
Wil li
s ah</w>
E P</w>
Plan eten</w>
Te ams</w>
fro h</w>
Proto koll
fas cin
Park plätze</w>
equi valent</w>
arbit r
An im
vor aus</w>
ück en</w>
Hau t</w>
manufac ture</w>
Hand lungs
über winden</w>
fre ely</w>
will ing
Dig ital</w>
Kontin ent</w>
lä dt</w>
Z ut
T ages</w>
stei gern</w>
high lights</w>
Strei t
Biblioth ek</w>
das selbe</w>
p illar</w>
ir ischen</w>
Ver lu
eigen er</w>
beh ält</w>
s z
lich keits
Währungs union</w>
B ad
si ed
on ers</w>
an son
present ing</w>
Anwen der</w>
Er gän
frü hen</w>
Amerikan er</w>
Di ffer
ges ti
oper ates</w>
europä isches</w>
fac tory</w>
fähi ge</w>
Kompet enz</w>
\ </w>
e at</w>
Cat al
territ orial</w>
EZ B</w>
integri erten</w>
eventu ell</w>
re al
ad ds</w>
dr as
Wei h
coll ect</w>
Fern sehen</w>
ges ichert</w>
t um</w>
G lau
gri echischen</w>
A th
D ör
her auszu
appropri ations</w>
or ation</w>
EU- Mitgliedstaaten</w>
proz esse</w>
suffici ently</w>
bewäl tigen</w>
and o</w>
satis fy</w>
in ing
re form
lei dung</w>
Ju gend</w>
Stuttgar t</w>
Dokum enten</w>
Spei sen</w>
sha dow</w>
ackno wledge</w>
hospit ality</w>
Telek omm
im peri
Deut sch</w>
App le</w>
derzei tige</w>
er staun
ach ing</w>
N ob
ins el</w>
Bestimm ung</w>
Di plom
jud g
ak te</w>
Parlam ente</w>
Mr .</w>
Pol y
kontrol liert</w>
L y
B in
wor st</w>
ra id</w>
gel esen</w>
n eh
Kü sten
ã o</w>
si gh
tax pay
Stre cke</w>
angemessen en</w>
D eck
zerstör t</w>
Austr alia</w>
fund ed</w>
de ad</w>
mitt lung</w>
Z ins
den jenigen</w>
tr at</w>
War en
id ents</w>
Phot o
or dered</w>
every where</w>
Kop enhagen</w>
pharm ac
Om budsman</w>
sol ar</w>
produc es</w>
S mar
Fac ilities</w>
rel ates</w>
sec ur
refer ences</w>
/ /
ep s</w>
wi des
Pro duz
hy th
Über blick</w>
Er haltung</w>
Besei tigung</w>
c on</w>
zur zeit</w>
kon tex
effek tive</w>
fas zin
ti sches</w>
maß geb
ti er</w>
zu kommen</w>
Zah lung</w>
C .</w>
Kon gres
urg ently</w>
propor tion</w>
dafri ka</w>
X P</w>
en erg
par t-
versch är
verk nü
Wand el</w>
Wes entlichen</w>
Pi azza</w>
anson sten</w>
ge wer
unter bro
il ater
CO 2-
bel ong</w>
D ri
bur gh</w>
pol it
Kap ital</w>
K ern</w>
shi ft</w>
O K</w>
Telekomm unik
wa ge</w>
hi king</w>
er tes</w>
rech tlich</w>
Straß burg</w>
Pres se
virtu ally</w>
Administr ation</w>
gro ssen</w>
enjo yed</w>
vi rus</w>
ver n</w>
tra cks</w>
* *
audi o
tre ff
Kir k</w>
lin ken</w>
B asi
unn ö
he ading</w>
refer ring</w>
Proto col</w>
Ma y
bin den</w>
län dliche</w>
Kateg orien</w>
ul en</w>
geb äu
über lassen</w>
si zes</w>
ch air</w>
UN O</w>
pl astic</w>
Kamp agne</w>
ic y
9 4</w>
Haupt bahnhof</w>
K öl
Mi et
P ir
st ak
swit ch</w>
pan el</w>
е н
et a</w>
sel ber</w>
al le
in os</w>
bo ards</w>
Minu te</w>
Den mark</w>
exec utive</w>
atta ched</w>
Registri erung</w>
tem por
Alex ander</w>
kn app</w>
am m</w>
diplom atic</w>
Mechan ismen</w>
am in</w>
end sten</w>
inten ds</w>
Bearbei tung</w>
L ern
bedeut enden</w>
effici ently</w>
Cor porate</w>
lei sch
tu ell</w>
lossen heit</w>
heal th
ent es</w>
des k</w>
Projek ts</w>
Gal il
unn el</w>
Ö l</w>
st ran
con vic
uni form</w>
any where</w>
verstän d
en ergie</w>
fahr er</w>
Potenzi al</w>
emp ha
k lear
erzeu gen</w>
geograph ical</w>
Muse en</w>
coher ent</w>
s al</w>
Di am
zeichn ungen</w>
gül tig</w>
Cook ies</w>
individu ally</w>
sor ry</w>
tig keits
gradu ally</w>
Län ge</w>
Indi an</w>
op en
Autob ahn</w>
wor tern</w>
M äd
eng aged</w>
auf fordern</w>
Hel sin
restor ed</w>
Her bst</w>
ent liche</w>
vorsch lagen</w>
an zeigen</w>
herr sch
anni versary</w>
h ungen</w>
H ong</w>
P las
dig es</w>
Christ mas</w>
e dition</w>
Ho li
m ere</w>
B ord</w>
so eben</w>
neg ativen</w>
entscheiden den</w>
us age</w>
unter suchen</w>
Gra fi
besu cht</w>
bew ahren</w>
d y
anzu bieten</w>
stric tly</w>
il er</w>
ck y</w>
war ran
er re
D ingen</w>
Gemein same</w>
son gs</w>
Instru ments</w>
oper ated</w>
ot ing</w>
Kon zentr
log ical</w>
Fran zös
ar ising</w>
strug gle</w>
phenomen on</w>
A vi
Mon ten
Flor enz</w>
Entwickl ungsh
T ool</w>
speci alists</w>
revol ution</w>
highligh ted</w>
W ed
Ri o</w>
exec ution</w>
us alem</w>
f ly</w>
treat ments</w>
Gu ide</w>
roman tic</w>
Alb um</w>
ro lle</w>
6 3</w>
Kandi daten</w>
z e
zw ingen</w>
Ver sorgung</w>
Dialog s</w>
V ista</w>
A ri
r ut
ben de</w>
Funk tions
j i
- European</w>
8 2</w>
6 2</w>
thre e-
Nik on</w>
K e
8 0
avi ation</w>
candi dates</w>
Inn enstadt</w>
Benutz ung</w>
Bedürf nissen</w>
hinzu gefügt</w>
sch mer
te a</w>
P ul
dar k</w>
eur os</w>
Zusammen halt</w>
T onnen</w>
in spir
Jose ph</w>
L ic
C ot
n ights</w>
langfris tigen</w>
stam men</w>
N ep
Aus wei
Sch ick
radi k
kor rek
Küh l
clo sure</w>
mis take</w>
ge fasst</w>
tra vel
me ets</w>
D ritte</w>
198 0</w>
Anti -
Todes strafe</w>
gra d</w>
Ü bri
Sicherheits politik</w>
reser ved</w>
hon our</w>
succ eeded</w>
tiv als</w>
öff n
consequ ence</w>
Mag az
Auf trags
favour able</w>
occur red</w>
c ell</w>
wesent licher</w>
under ground</w>
30 .</w>
ah me</w>
aff ects</w>
illeg ale</w>
pl ötz
tr e</w>
for ts
Her z</w>
Kon g</w>
Mon tag</w>
g lied</w>
Ober fläche</w>
Sad dam</w>
S enkung</w>
S t</w>
gew ach
ak ia</w>
est ens</w>
rech nen</w>
eng ines</w>
G ir
ung laub
Aut os</w>
sor ge</w>
aus el</w>
mit zu
Po int</w>
herr lichen</w>
IM F</w>
Cha ir
tra gt</w>
7 3</w>
ru pt</w>
ver fahrens</w>
verw öh
E A</w>
m outh</w>
be fasst</w>
inspi red</w>
p ä
Pres se</w>
g ig
well en
oll ars</w>
gekenn zeichnet</w>
pre ad</w>
bein halten</w>
Frei zeit
re porting</w>
Luxem burg</w>
dam ages</w>
incre di
str asse</w>
Direc tor</w>
astr onom
Augen blick</w>
ant es</w>
ha ft
wel coming</w>
finanz ieren</w>
Region al</w>
müs ste</w>
Be achtung</w>
rit ter</w>
wirk lichung</w>
kümm ern</w>
er wor
g ischen</w>
Ab ent
son g</w>
wech seln</w>
k reis</w>
wides pread</w>
oc op
Mechan ismus</w>
S W
ig i
spezi alisiert</w>
Vertre tern</w>
Det ail</w>
verletz ungen</w>
Ven ice</w>
Hinder nisse</w>
7 7</w>
rep utation</w>
Vice- President</w>
Str and
Lei p
hy po
Zu verlässi
therap y</w>
o es</w>
incorpor ated</w>
alis tische</w>
profession elle</w>
cli cking</w>
gh äfen</w>
ab end</w>
Hin weise</w>
Ac ademy</w>
Spit zen
gro ss</w>
Ur teil</w>
st euern</w>
st ur
mar ine</w>
Zür ich</w>
N T
fin ed</w>
neu n</w>
Li ve</w>
wür dig</w>
del ic
lo ser</w>
fest zustellen</w>
teach ing</w>
us -
p ts</w>
s qu
com position</w>
Ad v
Indi vidu
simil arly</w>
Uni ons
li able</w>
di ert</w>
gesch o
prak tischen</w>
ver wei
b lau
to s</w>
eng age</w>
vor gestellt</w>
sch u
Gep äck
alco hol</w>
kur s</w>
tn issen</w>
scri pt</w>
ur gency</w>
h ef
T ok
d ges</w>
Fre und</w>
integr ate</w>
Belgi an</w>
Ergeb nissen</w>
Mand at</w>
ausgewäh lt</w>
S ier
he ads</w>
r ant</w>
ehr lich</w>
az z</w>
Staats -</w>
v ation</w>
caus ing</w>
Ägyp ten</w>
pris oners</w>
gi k</w>
ab e</w>
prot ec
Hom epage</w>
resul ted</w>
lab or
Jugend lichen</w>
unmittel barer</w>
er richtet</w>
facil it
Ver sammlung</w>
S C
pro sec
Ver gn
cul tiv
berech net</w>
ge führte</w>
quot as</w>
aff ir
consi ders</w>
oper ator</w>
Sy m
encour aged</w>
gefähr det</w>
H D
in tim
gehand elt</w>
rec re
9 1</w>
6 9</w>
An hör
movi e</w>
char akter
ac quired</w>
B O
8 9</w>
particip ating</w>
Nachhal tigkeit</w>
min ing</w>
in ely</w>
app el
Fl uss</w>
F ro
ik a</w>
An sprüche</w>
St ör
hil l</w>
Dritt el</w>
Finan zi
ver ank
cam p</w>
em ark</w>
or es</w>
co des</w>
Kohäsions politik</w>
mis s</w>
man ual</w>
pass ing</w>
Innov ationen</w>
äl teren</w>
do s</w>
Ber echn
acci dents</w>
müs sten</w>
Über tragung</w>
S ä
ं </w>
ou d</w>
ehr en</w>
lig keit</w>
K äufer</w>
T O
et ten
c lar
stitu tion</w>
m acro
magaz ine</w>
sophistic ated</w>
typ ischen</w>
Beg rün
verl etzt</w>
a po
basi cally</w>
A U
geh ei
gro wn</w>
H U</w>
er schaft</w>
vari ed</w>
alis ierte</w>
Re al</w>
olog isch</w>
angen ehmen</w>
Pat ent
Netz werk
pro vince</w>
compul sory</w>
Pro ject</w>
er ship</w>
komp ati
TH E</w>
in her
mei ster</w>
confi denti
kon zip
re venue</w>
boo st</w>
erklär te</w>
conver gence</w>
clari fy</w>
angewand t</w>
Sou verän
ter ri
g no
th ou
Res ult
kosten lose</w>
explan ation</w>
st rei
wirk liche</w>
stu dent</w>
lab or</w>
produk ten</w>
grenz ung</w>
am p</w>
ou ts
y ear
st ance</w>
gereg elt</w>
O n</w>
war tet</w>
ein stimm
rec ording</w>
produc er</w>
S äu
Mit entschei
fahr t
re ti
reich hal
Wirk samkeit</w>
Pal ästinens
ver sammlung</w>
em pl
achiev ement</w>
tra ined</w>
Constitu tional</w>
medic ine</w>
P eter
beabsich tigt</w>
ver li
for th</w>
ins ist</w>
deck ung</w>
ergän zen</w>
gewäh lten</w>
ha z
se u
beeinflus sen</w>
at orium</w>
schwieri ge</w>
S AP</w>
angeneh m</w>
An meldung</w>
Satur day</w>
5 ,
beg ins</w>
seek s</w>
tag s</w>
beantwor tet</w>
subsequ ently</w>
symb ol
air ports</w>
d ollar</w>
hi dden</w>
Prä senz</w>
gen z</w>
B 5-0
Premier minister</w>
willing ness</w>
el f</w>
air lines</w>
palästinens ischen</w>
recogn ize</w>
bring ung</w>
Hä user</w>
Veranstal tungs
Hö chst
se es</w>
Kaff ee</w>
se ats</w>
ous ness</w>
Wachst um
graph ics</w>
о в
fest legen</w>
min i
c ommission
them ati
nit ten</w>
welt weite</w>
län gst</w>
Ver wirklichung</w>
ö ch
sch were</w>
So l</w>
gün stige</w>
Journ alisten</w>
F on
ch ester</w>
Pflan zen</w>
program men</w>
regul ated</w>
a ke</w>
sich ert</w>
tro ops</w>
Energie effizienz</w>
Reguli erung</w>
ut most</w>
AN D</w>
1 1
an sprechen</w>
Cul ture</w>
tri g
lob by</w>
Gemein schaften</w>
Vie w</w>
op tional</w>
T ER
kno w-how</w>
Kon junk
Ak tions
anzun ehmen</w>
reg ierung</w>
sit zen</w>
CD s</w>
Finn land</w>
T ür</w>
Tre aties</w>
6 0
Wider stand</w>
Dan ish</w>
Ber ge</w>
9 00</w>
teach ers</w>
geb lieben</w>
meaning fully</w>
ent fernen</w>
6 1</w>
stand s
construc ted</w>
D E-Fraktion</w>
t wice</w>
Ther ap
gesch ickt</w>
harm ful</w>
zer ti
ck ed</w>
ri ding</w>
plan en</w>
Übri gen</w>
or i</w>
Di es
D er
do w
echn ik</w>
Betre uung</w>
n ative</w>
ex act</w>
Tour ism</w>
humanit ären</w>
pictur esque</w>
N av
rec ords</w>
da k
ag ents</w>
w ahr</w>
fo ssi
geleg enen</w>
w ash
Unter kategorien</w>
Helsin ki</w>
to x
ob served</w>
j i</w>
P A</w>
re vi
bewer ten</w>
In du
Jer usalem</w>
en vis
co ol</w>
repe at
Liz enz</w>
panoram ic</w>
F ur
G ul
ent ative</w>
Ta x
ar d-
Mach t
Sy mbol</w>
chin esische</w>
sp häre</w>
Custom er</w>
t ü
ou ts</w>
s ein
erk unden</w>
Mo sk
so il</w>
Dokum entation</w>
pl ates</w>
eh lt</w>
Gem ü
pur ely</w>
Präsi dent
Si em
projek t</w>
ur laub</w>
L au
ri eren</w>
P ack</w>
Schul den</w>
läu fig</w>
grü nen</w>
sp er
Wirtschafts politik</w>
Appart ements</w>
min er
l or
B our
zieh ung</w>
pic k</w>
Umwelt fragen</w>
preser ve</w>
Büro krati
Modern isierung</w>
Vermö gen
vor ge
lic ens
Entfern ung</w>
Li thu
L eh
all eg
radi cal</w>
amen ities</w>
Dat um</w>
an sehen</w>
ei ved</w>
Spiel en</w>
cris es</w>
pos it
B ag
k rei
combin es</w>
Gipf el
Sto ck</w>
develop ers</w>
betri eb</w>
Auth ority</w>
Außen -</w>
addres sing</w>
exten ding</w>
V IS</w>
de fe
kilomet res</w>
S ho
St art
Tau ch
sub- categories</w>
ich e</w>
A ra
vi erten</w>
cook ies</w>
Mark en
hin weg</w>
verring ert</w>
Consu mer</w>
at om
associ ations</w>
Bet riebe</w>
W ör
lan ger</w>
Er forder
spä t</w>
Vor stellungen</w>
ó </w>
T al</w>
b em
Pass ag
Pan oram
sup por
Flug haf
cho ices</w>
op ens</w>
K h
si x
är er</w>
St amm
Er richtung</w>
multilater al</w>
su perior</w>
h t
over looking</w>
vi br
enn ess</w>
N ok
bed ded</w>
un ab
cap abilities</w>
implic ations</w>
S om
govern ing</w>
Her stell
haf tet</w>
ol dest</w>
hop es</w>
s eb
sur prise</w>
evi dent</w>
contex tually</w>
enti ert</w>
ich tung</w>
Bur ma</w>
Weiter entwicklung</w>
mehr fach</w>
son n
end ar</w>
wa days</w>
speci alized</w>
digit ale</w>
up grade</w>
afri kanischen</w>
chair man</w>
sol di
net z</w>
Mot or</w>
aufzu bauen</w>
Busin ess
grammati cally</w>
Relig ion</w>
ra chten</w>
ster ben</w>
pret ty</w>
kontex tuell</w>
Schlussel wortern</w>
fa x</w>
m ärkten</w>
grammati sch</w>
hervorra gend</w>
un ilater
ar men</w>
Me eting</w>
bo ats</w>
disp ute</w>
ä user</w>
Oli ven
Dü ssel
edi ted</w>
Aus arbeitung</w>
italien ische</w>
addi tionally</w>
geschlossen en</w>
Ver fol
War craft</w>
sta ke</w>
Mo dule</w>
7 6</w>
12 .00</w>
Z erstör
Schlussel wort</w>
Verbraucher schutz</w>
Schlussel phrase</w>
Arbeitn ehmern</w>
l on
y ard</w>
besonder es</w>
So w
comp le
ex o
c at</w>
ide ally</w>
hy dr
Leg isl
en forcement</w>
Um wel
Feh l
a gements</w>
fo x</w>
5 00
ada pt
d oppel
Tab ak
percent age</w>
setz te</w>
sch ä
Ferienwoh nung</w>
eb ook</w>
gegeben enfalls</w>
syn chron
ben en</w>
Argum ente</w>
g otten</w>
confer ences</w>
bo und
ar do</w>
deut sch
sp ite</w>
atten d</w>
ein gebracht</w>
Indu stry</w>
me al</w>
An hän
se arch
vic tory</w>
bel ong
no wadays</w>
ti ll</w>
Zu ge</w>
shi p
trau m
druck s
Spezial itäten</w>
Flä che</w>
Zyper n</w>
Lan gu
worl d-
B om
flo ors</w>
Dr ing
Wiederauf bau</w>
be unruh
est ri
pris on</w>
Er satz
ag a</w>
bi tions</w>
ver steht</w>
con vention</w>
Flu ghäfen</w>
war t</w>
radi o
telec omm
man chen</w>
negoti ation</w>
s now</w>
Educ ation</w>
I K
ein sei
b les</w>
Mex iko</w>
ehem alige</w>
it ly</w>
rig or
Vermitt lungs
M S
a ge
200 7-
amend ed</w>
C lassi
koh ol
ag on
sch lag</w>
a ders</w>
W erten</w>
Rich ard</w>
An nehm
vor gelegten</w>
ä s
D s</w>
pl as
7 8</w>
Z im
Sch atten
per mit</w>
An bet
nah </w>
cr yst
dump ing</w>
op es</w>
t les</w>
W omen</w>
medic ines</w>
C ab
ter ing</w>
iz ing</w>
kenn t</w>
C lin
Aus bildungs
man ip
í n</w>
cul p
land s
unter brei
ret ari
vor liegen</w>
rati fication</w>
chap ter</w>
er stat
zwei ter</w>
relation ships</w>
ch ris
defin ieren</w>
Col lege</w>
über wachen</w>
gen o
O EC
Hol z</w>
gemeinsam es</w>
ess el</w>
dig ungen</w>
Mark et
T ests</w>
o live</w>
m s
form ats</w>
In hal
Wil d
schedul ed</w>
ro ut
ari ans</w>
Auf zug</w>
n utzt</w>
mor al
er teilt</w>
trans fers</w>
reno viert</w>
Ver zeichnis</w>
R eb
ö l</w>
conc ert</w>
it y-
mäß ige</w>
Finanz ierungs
regel ung</w>
Philosoph ie</w>
In ten
diver si
len ken</w>
Le on
sex </w>
aus üben</w>
ech es</w>
geb ühr
anno un
vor zunehmen</w>
Lit er
onym ous</w>
um ge
E mail</w>
Erleb nis</w>
k r
G ay</w>
i onen</w>
gewöhn lich</w>
Bes itz
eur ozone</w>
sol ch</w>
egr o</w>
Reser ve</w>
Akte ure</w>
incen tives</w>
con stitutes</w>
Mäd chen</w>
um so</w>
col ors</w>
Grund lagen</w>
expen se</w>
m ouse</w>
an wenden</w>
acqu is
Nig eria</w>
voll es</w>
vari able</w>
Qu art
auf bauen</w>
An dal
schem es</w>
st al
er hol
E tik
en burg</w>
Kop f
genau er</w>
re tain</w>
Te am
communic ate</w>
be ach
Haf t
berühm te</w>
wäch st</w>
surpris ed</w>
for ec
B all
Co ck
exp and</w>
Chi le</w>
Sti ftung</w>
Resol ution</w>
UNES CO</w>
dimen sion
Blu e</w>
Fre und
z iert</w>
Min im
ein geleitet</w>
poor est</w>
berich terstat
ang le</w>
maxim al</w>
wech s
ruhi ge</w>
Spei cher
Serbi en</w>
tim ent</w>
An n
zah lungen</w>
Intern ationale</w>
Auf lösung</w>
nar row</w>
Spit ze</w>
f at</w>
T ieren</w>
le ute</w>
verwen deten</w>
ac adem
Tra ditionen</w>
näch ster</w>
conveni ence</w>
P aci
J ur
pr er
re agiert</w>
besei tigen</w>
ic als</w>
opp on
tief en</w>
li ck
fa ßt</w>
ung s</w>
An reg
Best re
Bas el</w>
tro ck
Explor er</w>
mor t
Ab fall
Aus bau</w>
pre mis
ri fic
enti eren</w>
ed a</w>
K lu
man n
h ase</w>
cas ino</w>
gesell schaftlichen</w>
Frau en
europ a
Mil ch
The at
journ alists</w>
Fam ily</w>
kl asse</w>
Urlau bs
jo int
organ ise</w>
tra in
legitim acy</w>
Sing le</w>
W en
Unter künfte</w>
än e</w>
b y-
be arbeiten</w>
An pass
Ver sicherungs
19 th</w>
fe wer</w>
Oper a</w>
Well ness</w>
Sier ra</w>
ten e</w>
M eist
appro aches</w>
elimin ate</w>
Wissenschaf tler</w>
ad o
H O
on ie</w>
mach in
b o</w>
L ast
Energi es
pro gres
Vorsitz enden</w>
gä ste</w>
Sonn tag</w>
Are a</w>
E ver
K rei
inde x</w>
ven ues</w>
rupp e</w>
finan ced</w>
Eu ch</w>
Sch wä
zw öl
as is</w>
per mission</w>
Män gel</w>
concentr ation</w>
keines wegs</w>
rep air</w>
repe ated</w>
25 .</w>
benach tei
Räum e</w>
ver stehe</w>
O LAF</w>
H z</w>
reib ungen</w>
be zü
All ah</w>
bed ürf
rah men
Wäh ler</w>
bel n</w>
sei t
3 50</w>
heraus ra
Di agno
in tu
C P</w>
Auswei tung</w>
p en</w>
s ar
th res
Ar men
Reg en
Entwick ler</w>
Ev ents</w>
pil ot</w>
Cub a</w>
ICH T</w>
own ership</w>
Nok ia</w>
eu ert</w>
ra ces</w>
Musli m</w>
neighbo urs</w>
Vorder grund</w>
der ly</w>
up gra
Schü ler</w>
campaign s</w>
accoun ting</w>
stu ff</w>
fik ationen</w>
territ ori
Sek tors</w>
chec ked</w>
-R es
g iger</w>
thir d-
Aus sage</w>
Sa ison</w>
gesu cht</w>
Bil dern</w>
cat ch</w>
¼ </w>
t sh
Leb an
neut r
Dres den</w>
© </w>
um gehen</w>
thumb nail</w>
äl ter</w>
in spec
nut ri
Inter governmental</w>
Ver z
da d</w>
ke ys</w>
üb ung</w>
Leg itim
smo oth</w>
ir l
ch tet</w>
ma x</w>
wer ks</w>
sp üren</w>
tern s</w>
wher eby</w>
bü ro
op enness</w>
C el
7 4</w>
p ast
Um struktur
m ische</w>
ultim ate</w>
Akti en
B R
H all
Sch alt
Bü cher</w>
offizi ell</w>
Kompl ett
er o</w>
B and
Sk y
integri erte</w>
econom ically</w>
Dän emark</w>
no -
fe et</w>
sch alten</w>
sek tors</w>
quanti t
Volks wirtschaften</w>
d é
Str ände</w>
Herz eg
l s
in y</w>
b ol
So und
Krieg es</w>
ी </w>
Kat alog</w>
classi cal</w>
parlament arischen</w>
remark able</w>
D au
is ter</w>
navig ation</w>
G T
adi se</w>
bran che</w>
st unning</w>
ir able</w>
intern e</w>
Cas a</w>
-L ös
z ens</w>
cast ing</w>
new sletter</w>
F an
lei ter</w>
enor men</w>
e. g</w>
certi fied</w>
en es</w>
Di re
y ards</w>
land wirtschaftlichen</w>
Wohn zimmer</w>
dig keits
in adequate</w>
K la
Par a
sozi al
for war
fre e
s car
b right</w>
gleich heit</w>
E din
under lying</w>
Bestä tigung</w>
Souverän ität</w>
comple tion</w>
W W
E th
P on
sü dlichen</w>
Proz eß</w>
i Po
Doppel zimmer</w>
woo den</w>
fahr ens
funk tion</w>
ing redi
Annehm lichkeiten</w>
g on</w>
e ure</w>
stor es</w>
is co</w>
amaz ing</w>
O x
- und</w>
Ver ab
Über gang</w>
rei ches</w>
Wohn ungen</w>
Sam sung</w>
· </w>
an ten
ent stand</w>
secon ds</w>
innov ativen</w>
mäß igen</w>
lö schen</w>
gerech te</w>
qu ellen</w>
hunder t</w>
un zäh
Con tent</w>
Ehr e</w>
Internet zugang</w>
studi ed</w>
ein igt</w>
ses sions</w>
el and</w>
b aus</w>
Ris ik
fir st-
sch wä
an gehen</w>
per su
me als</w>
ass et</w>
stat ing</w>
Mar k</w>
profession ellen</w>
Bef örder
Universit äten</w>
br y
fl uss
er hoben</w>
Objek te</w>
E D</w>
li ked</w>
Kre ativ
agem ent
t un
ri k</w>
Nutz ungs
st ories</w>
ök ologischen</w>
p. m.</w>
Masch inen
d sch
ös s
er le
öst lichen</w>
Erwachsen e</w>
hilfrei ch</w>
Anbet racht</w>
ek tion</w>
sh ore</w>
des to</w>
her stellen</w>
frei er</w>
al tungen</w>
bl ed</w>
viol ation</w>
co o
ear n</w>
ver bindung</w>
hochwer tigen</w>
proz eß</w>
U M
b at</w>
f lich</w>
Or ten</w>
ges etz</w>
elektron ische</w>
Fund amental</w>
Kon vent</w>
be er</w>
m elt</w>
So und</w>
ov a</w>
consider ations</w>
ge widmet</w>
Energi equ
höch st</w>
ingredi ents</w>
A ch
v is</w>
deb ating</w>
descri be</w>
krä ften</w>
ativ ity</w>
hö her
win d
Por tal</w>
klein ere</w>
Paci fic</w>
read s</w>
verb lei
Fahr er</w>
ex posed</w>
ret ary</w>
gefähr lich</w>
believ ed</w>
co ck
be fu
Ph il
erst es</w>
un necessary</w>
lay out</w>
effizi enter</w>
mer ken</w>
P atten</w>
as signed</w>
deser ves</w>
konsequ ent</w>
p p</w>
Sam stag</w>
A y
is en
met er</w>
co decision</w>
Bla ir</w>
Chair man</w>
er a
b ited</w>
größ ter</w>
Anmerk ungen</w>
aus gehen</w>
pol is</w>
Ci vil</w>
up- to-
büro krati
Erfol ge</w>
bevölk erung</w>
Entsch lossenheit</w>
р а
to il
Ar c
ver öffentlichen</w>
unge achtet</w>
schwe dischen</w>
Sie g</w>
H ab
Stra h
Pre mi
Ein satz
getr ennt</w>
Mo dul</w>
Slov akia</w>
min or</w>
Qu es
Kor re
found ations</w>
Bes itz</w>
su ms</w>
Air lines</w>
transl ated</w>
Verbrau chern</w>
Siem ens</w>
S li
ac compl
Kooper ations
Ex istenz</w>
timet able</w>
D C</w>
besch ä
gi ble</w>
R eh
komm ens
mi le</w>
Gesetz es
in door</w>
L or
d än
8 1</w>
da vor</w>
S atz</w>
betei ligten</w>
k ette</w>
Oper ation</w>
repeat edly</w>
gegen über
F euer
Got tes</w>
Pen sion</w>
Er reichung</w>
N ICHT</w>
sen k
B av
dist ur
Ter ms</w>
grenzüberschrei tenden</w>
Nichtraucher zimmer</w>
vermut lich</w>
fin dung</w>
Person en
of- the-
an ger
sich tig</w>
s ement</w>
Qu ality</w>
H D</w>
Ru f</w>
gemü tliche</w>
Smo king</w>
enjo ying</w>
represent ing</w>
ion s
reck t</w>
cancell ation</w>
spe eches</w>
S n
so ever</w>
inst antly</w>
dis count</w>
Rati fizierung</w>
i j
ro ll</w>
vol lem</w>
gro ss
Grupp en
Deutsch lands</w>
emo st</w>
str ing</w>
Ge wäs
Himm el</w>
man agers</w>
p end
woh nern</w>
thor ough</w>
so und
s me
mi th</w>
ri d
spiel er</w>
olog ischer</w>
ob serve</w>
Geb ühren</w>
theat re</w>
featur ing</w>
Speci al</w>
N izza</w>
bewu ßt</w>
sp len
R em
er wiesen</w>
gün stigen</w>
ý </w>
R enn
exam ination</w>
frequ ency</w>
Leip zig</w>
am in
Demok raten</w>
á n
c el</w>
ek tor</w>
kür z
Hard ware</w>
Mos cow</w>
for emost</w>
F I</w>
lic a</w>
an genen</w>
ref res
Bur g</w>
s burg</w>
exam ined</w>
Elek tron
techni que</w>
geschä ft</w>
neh me</w>
umin ium</w>
й </w>
Ab lauf</w>
comm it</w>
ber ichtet</w>
gerech t
Aspek ten</w>
verbrei tet</w>
all ing</w>
T S</w>
hal tungs
Argum ent</w>
genu inely</w>
Sch o
ru m
Geg ner</w>
Kompet enzen</w>
ach ed</w>
er nen</w>
Por to</w>
Fish eries</w>
umfas sen</w>
beg un</w>
j ac
S ig
8 7</w>
cre w</w>
simultane ously</w>
F assung</w>
wid men</w>
er heben</w>
intensi v</w>
guarant eeing</w>
lich t
Off ic
Ash ton</w>
Wed n
6 ,
comp ete</w>
vi era</w>
stärk sten</w>
Sch reiben</w>
CE O</w>
her bei
T amp
tor ies</w>
Be zeichnung</w>
S icht
i ko
ember au
I M</w>
dies bezü
L T</w>
tä tigen</w>
üb lichen</w>
auslän dischen</w>
gab en
lic ation</w>
5- 00
Ph y
L oc
Vereinig te</w>
Bl ack
h ills</w>
St ur
and al
fol der</w>
ber ger</w>
Ges icht
sol ved</w>
S E</w>
clo ck</w>
Ex port
occup ation</w>
L ohn
K lo
v acc
pri ze</w>
Beh örde</w>
Kno w-how</w>
ha i</w>
posi tion
Ch ic
Qu ell
reib ungs
sugges ts</w>
bei behalten</w>
complain ts</w>
seit dem</w>
H of</w>
geb ene</w>
sign ing</w>
lei hen</w>
Ma xim
with draw</w>
198 8</w>
eth ical</w>
Stell en
strö m</w>
Vor rang</w>
er leb
su </w>
res um
air e</w>
condi tioned</w>
4- star</w>
Werk zeug</w>
Wa sch
par tei
Kon vention</w>
räsi denten</w>
bedro ht</w>
Re al
L E</w>
Ru ß
R evision</w>
Camp ing
op ho
se as</w>
Schul den
Bab y
Sch wellen
par tial</w>
Soci ety</w>
at emberau
G B
D amp
Ro ad</w>
inten tions</w>
on gs</w>
over -
3 1.</w>
hoh es</w>
subscri be</w>
stan zen</w>
Sy mb
au x</w>
vor ange
Fil me</w>
an forderungen</w>
Gol den</w>
Stabil itäts
ar z
Mo dus</w>
ni k</w>
Niederlan de</w>
Gre ens</w>
occ o</w>
Durch setzung</w>
frü h</w>
b uses</w>
zu gs
fal sche</w>
Bestell ungen</w>
mix ed</w>
Fire fox</w>
H ein
s ity</w>
d res
con stra
v illa</w>
verur teilen</w>
dis zipl
zi a</w>
techn isch</w>
electri cal</w>
H IV</w>
Ac count</w>
tex tile</w>
wel le</w>
S ens
ver m
T ruppen</w>
secon dary</w>
ga stronom
1. 5</w>
Wer be
audi ence</w>
Hoh e</w>
kombin iert</w>
clar ity</w>
k lin
at ri
ar res
te ch</w>
P har
import antly</w>
li gence</w>
dram atic</w>
Jes us</w>
s tick</w>
la im
inform al</w>
Re par
condem n</w>
a o</w>
chem ische</w>
Eff ekt</w>
s k</w>
geb ot
tig sten</w>
verhäl tnis</w>
Volk spartei</w>
erwer ben</w>
jüng ste</w>
U -
stell ten</w>
hei ght</w>
è re</w>
In genie
aus wählen</w>
tn ess</w>
er teilen</w>
Ar ena</w>
D am
altern atives</w>
eleg ante</w>
Sch ad
Russ lands</w>
Klar heit</w>
V ar
zah ler</w>
kol lek
Garanti en</w>
vertrau t</w>
20 th</w>
Nor d</w>
bew egt</w>
pro fes
fal se</w>
cons isten
n ight
collap se</w>
wei chen</w>
ist ently</w>
lo ses</w>
exis tieren</w>
destro y</w>
por tra
er ende</w>
sm us</w>
R unde</w>
depen dence</w>
dat eien</w>
tier enden</w>
compar able</w>
F abri
Tick et</w>
exp anded</w>
P un
Zwei ten</w>
bro ken</w>
ver tritt</w>
ge fühl</w>
P ur
20 15</w>
enjo ys</w>
b ay</w>
öffent licher</w>
Mich el</w>
Statisti ken</w>
in o
G lei
anzu wenden</w>
komplex e</w>
emp ty</w>
Schul z</w>
befür worten</w>
prefer red</w>
gün stig</w>
miet ung</w>
sp ür
F ang
G eist
Eigent ü
Wich tigkeit</w>
Slowak ei</w>
bes tra
lo ading</w>
Mal ay
überra scht</w>
2 nd</w>
zu geben</w>
fortun ate</w>
Je wish</w>
In flation</w>
Her kunfts
ful l-
and in
Ch il
18 0</w>
haf ter</w>
arab ischen</w>
escap e</w>
Kommissionspräsi dent</w>
IW F</w>
n ings</w>
Sol ana</w>
ar ray</w>
Monten egro</w>
Edin burgh</w>
eist ungen</w>
ologi en</w>
listen ing</w>
Holi day</w>
str and</w>
pen sions</w>
der art</w>
unterschied licher</w>
for cing</w>
um gehend</w>
flexi bel</w>
De partment</w>
ig a</w>
qu et</w>
förder ung</w>
adv enture</w>
ig ungen</w>
gr aben</w>
P ho
resp ects</w>
é e</w>
gem essen</w>
voc ational</w>
li fe
geb nisse</w>
Sek unden</w>
Kon zer
hi elten</w>
Ty p</w>
p aths</w>
ti m</w>
au tor
sp rin
d ying</w>
expres s
Pal ette</w>
del ete</w>
sp anische</w>
gir ls</w>
th ri
r ating</w>
Web -
nä her
mith ilfe</w>
joint ly</w>
tik er</w>
L eben
tern al</w>
comp lex
o li
Hä fen</w>
sac rific
tr in
ung alo
Minis terr
Palestin ians</w>
Syri a</w>
t onn
Aus richtung</w>
sam ple</w>
Vene zu
h un
Jo int</w>
mög lichkeit</w>
Br ut
ter -
hol e</w>
typ isch</w>
ähn lichen</w>
zu fügen</w>
aut umn</w>
att ack
gre enh
finanz ierung</w>
24 .</w>
g ori
F rü
feh len</w>
Rechn ungs
mean while</w>
G AP</w>
es c
trag ic</w>
er arbeitet</w>
Log is
re turns</w>
N C
sp it
pl ur
bewer tet</w>
is tisch</w>
K DE</w>
iss ance</w>
insp ection</w>
Vor gehensweise</w>
sa al</w>
sen der</w>
Mar ok
Er schein
mittel alter
blin d</w>
Haushal ts</w>
wach sende</w>
Fel der</w>
junc tion</w>
ch am
inst re
id ance</w>
be weisen</w>
spec trum</w>
Spazier gang</w>
appar ent</w>
8 3</w>
Ver heu
arti fic
Chanc en
Pflan zen
ver mittelt</w>
Komment are</w>
präz ise</w>
el igi
En ts
Pra g</w>
co st-
doub ts</w>
respek tieren</w>
op pose</w>
St ahl
Ab teilung</w>
fif th</w>
Hai ti</w>
uni or</w>
log ic</w>
Vor red
behaup tet</w>
f lat
lief erung</w>
Kenn zeichnung</w>
wher ever</w>
aktu alisiert</w>
auslän dische</w>
eil lance</w>
Engine ering</w>
Valen cia</w>
T V
coast al</w>
v ary</w>
m äh
continu ously</w>
rieb enen</w>
Problem atik</w>
stät ten</w>
Su ites</w>
Sol daten</w>
lan gem</w>
Z e
Ur sache</w>
Fot ogra
til ity</w>
Publik um</w>
diesel be</w>
Gemein den</w>
Aus blick</w>
viol ent</w>
kosten losen</w>
accur acy</w>
trage dy</w>
Entwicklungsh ilfe</w>
Wedn esday</w>
fre ch
Mar t
af en</w>
et tes</w>
klär en</w>
ah e</w>
ri ere</w>
zei gte</w>
m ²</w>
revis ed</w>
lo sing</w>
the tic</w>
character istic</w>
Qu ark</w>
af ford</w>
el ev
Nach druck</w>
b ought</w>
Verk aufs
taus end</w>
pharmac eu
foc using</w>
manufactur ed</w>
statt gefunden</w>
stand ardi
uneingesch ränkt</w>
Fest platte</w>
an o
Off enheit</w>
arran ged</w>
jähr lichen</w>
l ap
Lu d
gar age</w>
poten ti
transi tional</w>
intelli gen
Kür ze</w>
C ru
E del
ar tik
Fre e
verl ag
fahr zeuge</w>
koh är
Stor age</w>
diesel ben</w>
j o</w>
gehöri ge</w>
Origin al
timedi a</w>
T ot
str ation</w>
erheb lichen</w>
ge ehrte</w>
Bet reiber</w>
24- Stunden
d einer</w>
bec ken</w>
la ying</w>
resp ec
Gesetz geb
bli cken</w>
aus wirken</w>
anzu passen</w>
dead line</w>
For tsetzung</w>
gori th
Verheu gen</w>
t oll
r ation
Zei tsch
zeichn ete</w>
á n</w>
f at
P ier
M ass
S P</w>
T ren
n esses</w>
cir cu
Aus sagen</w>
zu stande</w>
Mor occo</w>
Kenn tnisse</w>
adul t</w>
medi eval</w>
Schick sal</w>
p rel
ru fe</w>
mechan ical</w>
Prof .</w>
elec toral</w>
ges to
sa d</w>
b ün
unden e</w>
erleich tert</w>
Ira q
typ ically</w>
u c
N ation</w>
ha ir
fahr ts
S K</w>
Resi dence</w>
resear chers</w>
por te</w>
ger ingen</w>
certi fication</w>
verur sachen</w>
bedauer lich</w>
Heim at</w>
stri ke</w>
wär tige</w>
su ited</w>
peti tion</w>
therap eu
forts etzen</w>
go s</w>
sm art</w>
a issance</w>
rec all</w>
S ark
ass urance</w>
wunder schöne</w>
Invest ment</w>
meas urement</w>
exp enses</w>
Zuverlässi gkeit</w>
st ein
n est
sa ke</w>
fre ul
deut liche</w>
T op</w>
horiz on
T el</w>
g ungs
klär t</w>
Per formance</w>
umfang reichen</w>
Lou is</w>
K au
pos s
Latein amerika</w>
ein st</w>
vor liegt</w>
ent deck
Netz e</w>
Co ur
Ziel setzungen</w>
beweg ung</w>
Dynam ik</w>
fall ing</w>
trans action</w>
tri bute</w>
üst et</w>
Stei gerung</w>
fascin ating</w>
W eine</w>
ag u
di tions</w>
sit ät</w>
zw ischen
L om
W ett
beru h
In kraft
D R
lo ans</w>
. net</w>
tor ia</w>
198 6</w>
SD L</w>
bri l
Wahr ung</w>
endgül tige</w>
Trag ö
Protokoll s</w>
com pos
regi onen</w>
Einzel heiten</w>
kap it
politi ken</w>
mi ß
region aler</w>
Gesch en
Bet racht</w>
H ände</w>
Aus rüstung</w>
angekün digt</w>
Vermögen s
A ma
inn ere</w>
dis co
ein iges</w>
Altern ativen</w>
r ung</w>
T ak
D oh
Fot o
aff ecting</w>
medizin ische</w>
gemeinsam er</w>
Emp loyment</w>
Besch ränkungen</w>
Zu cker
a e
ro of</w>
inn eren</w>
ei ts
automati sche</w>
zentr aler</w>
Lebensmittel sicherheit</w>
Sci ence</w>
juris diction</w>
wir ft</w>
In halten</w>
Zeit plan</w>
Werk zeuge</w>
Mittelme er</w>
leg er</w>
gro und
komplex en</w>
Ver n
health care</w>
Düssel dorf</w>
speci ally</w>
ti les</w>
ver wiesen</w>
Erei gnis</w>
bro ader</w>
appar ently</w>
begrün det</w>
Mensch heit</w>
af raid</w>
T us
ar ts</w>
Pro vi
Comm on</w>
mo tivi
He ads</w>
arran gement</w>
begeg nen</w>
A .
it ations</w>
splen did</w>
D O
I f</w>
Bu ff
Im peri
ei ling</w>
cal m</w>
publ ish</w>
Blo ck
bran ch</w>
arbei teten</w>
en cryp
gen -
er ische</w>
di ving</w>
Up dates</w>
W ä
ü ch
del ays</w>
prob ieren</w>
i ed
ch airs</w>
tra ktionen</w>
Bewus stsein</w>
so for
3 00
kor ea</w>
Saf e</w>
Mittelme err
l are</w>
citiz en
Sei ten
erforder liche</w>
gran ting</w>
environment ally</w>
k es
rec ru
h ne</w>
Wür de</w>
Chancen gleichheit</w>
G R
AR E</w>
Minder heit</w>
dr ängt</w>
F leisch</w>
with draw
be fin
Aut or</w>
prepar ations</w>
Ori enti
Ri viera</w>
ven tive</w>
in ien</w>
H alt
remo val</w>
der selben</w>
Treib haus
for gotten</w>
j an</w>
integr ity</w>
EI B</w>
U K
ung er
w unden</w>
bre ath
Minis try</w>
Sec ond</w>
erwäh nten</w>
Georgi en</w>
excur sions</w>
1 30</w>
lo go</w>
Galil eo</w>
L T
vi able</w>
h ang
employ ers</w>
Fisch ler</w>
Fil ter</w>
K lassi
Plätz e</w>
answer ed</w>
repub lik</w>
up-to- date</w>
Gar ten
fair en</w>
Stro m</w>
per pet
gest artet</w>
B ün
alis ing</w>
ann ehm
I X</w>
bath rooms</w>
Vene dig</w>
Nordi c</w>
W all</w>
lei chte</w>
1 10</w>
form ular</w>
bu ying</w>
fer tigung</w>
ju dge</w>
Ver sprechen</w>
Bas is
realis iert</w>
Lehr er</w>
tatsäch lichen</w>
kön ne</w>
Aus nahmen</w>
of tware</w>
hor se</w>
enthusi as
promot ed</w>
wick lung</w>
pf ung</w>
alis ierungs
zer o</w>
short- term</w>
ge gn
Über nahme</w>
r us
Rei cht
stres sed</w>
L A</w>
g ungen</w>
V ill
Ver län
österreich ischen</w>
bu g</w>
Rech en
zu gestimmt</w>
betri ebe</w>
ch a
A li
versch affen</w>
ver trauen</w>
terri ble</w>
aus es</w>
G anz
cust om</w>
de voted</w>
an erkennen</w>
big ger</w>
Er krank
what soever</w>
T ali
B A</w>
schen ken</w>
ori entation</w>
medi terran
prosp ect</w>
oblig ator
purchas ed</w>
so genannte</w>
unterbro chen</w>
Über sicht</w>
n ehmen
dec lare</w>
wür digen</w>
er weisen</w>
vie wing</w>
marg in
Ministerp räsident</w>
ar ed</w>
-S h
Ti bet
vor sieht</w>
ac io</w>
un certainty</w>
trav ellers</w>
Rein igung</w>
Entsch ä
Kommission smit
Sow jet
ing ent</w>
auth ors</w>
Auf trag
Liefer anten</w>
S ah
an ger</w>
Flor ence</w>
bo w
und ry</w>
über mitteln</w>
m its</w>
gi ft</w>
Rei ch
tur en</w>
ass ured</w>
Finn ish</w>
pro gressive</w>
ref used</w>
kur zer</w>
Se ele</w>
Ver sand
cal endar</w>
T aten</w>
techn ischer</w>
plan ung</w>
Dro gen</w>
Kaff e
Bürokrati e</w>
ot t
gl ing</w>
mom ents</w>
ref use</w>
er vice</w>
M au
H our</w>
Al ps</w>
voll stän
get rieben</w>
ar rest</w>
Con troll
frei ght</w>
verab schieden</w>
UR L</w>
form uliert</w>
express ly</w>
gemü tlichen</w>
bo asts</w>
absur d</w>
A l</w>
d äm
pel ine</w>
Er öffnung</w>
b ö
k ern</w>
tu </w>
kur se</w>
glau bt</w>
princip al</w>
einzi g</w>
Cor poration</w>
Er arbeitung</w>
verz ichten</w>
dr ängen</w>
zwöl f</w>
sign als</w>
Dokum ent
Glau ben</w>
sch lu
tor i
leb enden</w>
Sch reib
ron t</w>
aus gehend</w>
er öffnen</w>
taxpay ers</w>
anti </w>
Pal ma</w>
clo sing</w>
autom otive</w>
res idents</w>
bein ahe</w>
b ag
Sü do
AN T
M igration</w>
Ju gosla
angeneh me</w>
moder ner</w>
er arbeiten</w>
p ace</w>
Ab bau</w>
dr yer</w>
Auf hebung</w>
E-Mail- Adresse</w>
d al</w>
res cu
person en</w>
An f
Liber alen</w>
19 45</w>
Land wirtschafts
7 ,
d ing
Intern al</w>
gen es</w>
dur ation</w>
ign ore</w>
h är
li vely</w>
spek tak
offici ally</w>
2 2.</w>
Ver fahrens</w>
angen ommenen</w>
ch ur
tri eben</w>
schön es</w>
rene wed</w>
preser ved</w>
ökonom ische</w>
b lan
Tun is
Nichtraucher zonen</w>
ti gh
c ts</w>
eindeu tige</w>
Ver ordnungen</w>
wi fe</w>
W art
foc uses</w>
Fri endly</w>
geeign eten</w>
observ ation</w>
Äu ßer
t one</w>
er langen</w>
niedri gen</w>
Clu bs</w>
bes ich
se emed</w>
befürwor tet</w>
dep lo
pursu ant</w>
Ver fahrens
¶ </w>
g ate</w>
G A</w>
Mon te</w>
g ingen</w>
ar gue</w>
an passen</w>
Austr alien</w>
Im mun
access ories</w>
ausgestatt ete</w>
C ô
install ations</w>
gering er</w>
sle ep</w>
lo aded</w>
M ischung</w>
G il
part ments</w>
br ands</w>
post al</w>
prin zip</w>
des igner</w>
surv eillance</w>
Ges icht</w>
li ke
Mac ed
k as
Par li
aff ili
Ho w</w>
hier mit</w>
ver arbeitet</w>
sou l</w>
benefici al</w>
General sekre
gebäu de</w>
year -
j ing</w>
gi pf
comm odi
p. m</w>
neut ral</w>
Welt krieg</w>
Schwim mb
spät estens</w>
8 4</w>
sl opes</w>
Г ј
hel l</w>
Her kunft</w>
Win d</w>
Bau ern</w>
Bau m
per forman
bel ongs</w>
S ab
min es</w>
deb ated</w>
met ro</w>
eleg anten</w>
publ ishing</w>
ränk te</w>
motor way</w>
Doh a</w>
G as</w>
hin e</w>
H änden</w>
ograf ie</w>
deser ve</w>
zu gelassen</w>
ol f</w>
ag nen</w>
our s</w>
läu fi
fin ds</w>
hör t</w>
pres idential</w>
Repres entative</w>
gen öss
J on
and al</w>
p it
sy m
zw eck
höch ster</w>
quanti ty</w>
geb ühren</w>
Nach mittag</w>
kö mm
olog ne</w>
198 7</w>
S zen
be zeichnen</w>
ursprün gliche</w>
Privat sphäre</w>
Zerstör ung</w>
dimen sions</w>
Buch stab
pak et</w>
stopp ed</w>
Zun ahme</w>
ec ks</w>
ma ster
be ef</w>
tax i</w>
intu i
verm ieden</w>
um es</w>
lin ing</w>
H alle</w>
hon est</w>
in sufficient</w>
adjust ment</w>
surv ey</w>
f ell</w>
destin ations</w>
erst reckt</w>
Tamp ere</w>
et tet</w>
lin k
sta ying</w>
wid th</w>
Softwar e-
fu hren</w>
as onic</w>
GU E</w>
res idential</w>
gi </w>
genie ßt</w>
S eries</w>
ei ler</w>
auf nahme</w>
sicher er</w>
öh ne</w>
sover eign</w>
religiö sen</w>
Sü dafrika</w>
a wa
w och</w>
198 5</w>
Produk tivität</w>
r ar
k an</w>
m i</w>
G O</w>
F requ
enjo y
einger ei
an zig</w>
rel ief</w>
Aus beut
S ul
Rechn er</w>
Mar co</w>
Presi dents</w>
K m</w>
b and
w ed
pl er</w>
u um</w>
than king</w>
L ager</w>
integri eren</w>
Kre uz
Zerti fik
C ou
Ber gen</w>
mark ing</w>
Geb ir
cat alogue</w>
Terror isten</w>
susp ended</w>
cam eras</w>
ä der</w>
bu </w>
eigent liche</w>
Caf é</w>
Wieder herstellung</w>
hal b
nicht -
w öch
on y
ü ssen</w>
all ed</w>
m atic</w>
com posed</w>
maxim ale</w>
des ktop</w>
Sour ce</w>
commer ce</w>
popul ations</w>
russ ische</w>
ssi er</w>
ti gem</w>
kap az
n ur
wi en</w>
T ou
S em
R ic
ne o
mitt ing</w>
char m</w>
verein t</w>
Partner ship</w>
gewünsch te</w>
Aus grenzung</w>
L un
el det</w>
achiev ements</w>
best ände</w>
indic ators</w>
zu ge
bu cht</w>
pro vo
at t</w>
änder ungen</w>
ar range</w>
Wettbewer bs</w>
defic its</w>
ar te</w>
Tur n
ex pos
ay a</w>
mark tes</w>
Er halt</w>
Verab schied
under take</w>
modi fy</w>
soldi ers</w>
explic itly</w>
ig ungs
ti ll
identi fication</w>
F ax
St euer</w>
Um stände</w>
gel angt</w>
Frei handels
det eri
Begrün dung</w>
s ä
R ass
e de</w>
C A</w>
Mil lion</w>
auf geführt</w>
Schl ag
Formu lierung</w>
V al</w>
negoti ated</w>
z immern</w>
gegensei tigen</w>
ge habt</w>
fi ehlt</w>
g ast
fes te</w>
super b</w>
Zur ich</w>
Bürger beauftragten</w>
Menschenrechts verletzungen</w>
J a</w>
ad res
credi ble</w>
geleg ene</w>
ger inge</w>
Dig ital
sti l</w>
B ett
f angen</w>
verbin dungen</w>
Le ague</w>
Schlu ß
ć </w>
b its</w>
con version</w>
ag gres
k riterien</w>
Schn ell
gel ernt</w>
chem icals</w>
wahr e</w>
ret ten</w>
gra vier
bureauc racy</w>
b icy
O s
con i</w>
Rechnungsh of</w>
po sts</w>
läu fe</w>
sch äd
Col om
advis e</w>
rul ing</w>
distinc tion</w>
Produc t</w>
Lissabon- Strategie</w>
sh uttle</w>
greenh ouse</w>
Verabschied ung</w>
ti a</w>
Europ ar
gu il
thor ou
certific ate</w>
berühr t</w>
f an</w>
log istics</w>
empf ängt</w>
gi a</w>
ein stellen</w>
tra ins</w>
prec ision</w>
mm ing
interess anten</w>
spieg eln</w>
suppl ementary</w>
Alter s
P is
car te</w>
schl uss
zw anzig</w>
e ve</w>
Bau ern
zeh n
Unter drück
relev anten</w>
verz err
behavi or</w>
Kapaz ität</w>
Abgeord neter</w>
Mitt woch</w>
S A
di eren</w>
thi op
da hin</w>
sens or</w>
Funktion alität</w>
pre mium</w>
Konjunk tur
ch ro
zusammen arbeit</w>
Si eg
refl ection</w>
odi versity</w>
pl ätzen</w>
Ex ternal</w>
7 9</w>
auf gestellt</w>
zeichn eten</w>
red und
eb t</w>
d den
wa i
prü f
Ant on
funk tionen</w>
big u
Hän dler</w>
exhi bitions</w>
territ ories</w>
Anrei ze</w>
telef on
ü </w>
et or
vor über
ck ets</w>
Co operation</w>
Haf en
Finan zen</w>
par ameter</w>
Zu stell
Sch aden
di en</w>
ft -
stän digkeit</w>
-S oftware</w>
K ä
fi re
rati fied</w>
Rep rä
vis its</w>
pro pri
ver arbeitung</w>
klein eren</w>
jeg licher</w>
kl en</w>
Nach fol
durch zusetzen</w>
Trans fer</w>
Klimawand els</w>
d ei</w>
under stand
Min er
kan di
ad mit</w>
ab geben</w>
Kl ing
beruf lichen</w>
Bur eau</w>
Gewin n</w>
cons istently</w>
S L</w>
emerg ed</w>
purchas ing</w>
tre as
it ten</w>
tsp rech
rob ust</w>
B rücke</w>
B I
F ür
An träge</w>
industri ellen</w>
pat ents</w>
ver teilung</w>
prev ented</w>
spektak ul
ir on</w>
mer k</w>
Gro ßen</w>
Bu il
necess ity</w>
ein ges
kri tischen</w>
it zer</w>
Wert pap
s culp
c eiling</w>
er lassen</w>
An gabe</w>
wander ung</w>
archi ve</w>
Ausbeut ung</w>
j p
ci ally</w>
Ro th
atten ded</w>
metho de</w>
whe el</w>
civi lian</w>
telecomm unications</w>
like wise</w>
Ein nahmen</w>
y- to-
Olymp ic</w>
Emp ire</w>
A 4-0
x en</w>
acc um
For d</w>
t lichkeit</w>
promis ing</w>
mittl ere</w>
Fremden verkehr</w>
Ro s
Rück gang</w>
Boo t</w>
medizin ischen</w>
E qu
ma il
d lichkeit</w>
st ab</w>
tex </w>
Empf ang</w>
30 -
contro versi
Bit te</w>
authori zed</w>
geschm ack
n on</w>
her um</w>
tre bt</w>
F isch</w>
Boo k</w>
Mein ungen</w>
basi eren</w>
Schul d</w>
occup ied</w>
B ed</w>
innov ations</w>
im ported</w>
23 .</w>
preci ous</w>
Con sul
plötz lich</w>
Sark o
per sec
pat tern</w>
wün scht</w>
Pl ace</w>
komfort ablen</w>
threat ened</w>
wh el
th otel</w>
Be au
negoti ate</w>
wert volle</w>
son stige</w>
re tail</w>
cen ters</w>
fe edback</w>
ne x</w>
Hand lungen</w>
cro w
wor rying</w>
gerecht fertigt</w>
an ch
der -
seg ment</w>
ic on</w>
winn er</w>
organ ize</w>
mand atory</w>
sche dule</w>
p ain</w>
r an</w>
frequ ent</w>
Wäl der</w>
Non- Smoking</w>
C ho
f assungs
adem ie</w>
ati sierung</w>
PPE- DE</w>
affor dable</w>
Verfol gung</w>
Re f</w>
Chi ef</w>
citizen ship</w>
Stu fe</w>
M y</w>
4 00
schle chte</w>
neigh bourhood</w>
Dire kt
un dern</w>
ari b
Ma x</w>
zunehmen de</w>
spä teren</w>
endgül tigen</w>
dict ator
r ischen</w>
Ro ck</w>
w th</w>
ing er
fl ying</w>
kan ische</w>
Wün schen</w>
hau sh
Rich ter</w>
beru hen</w>
Fischerei politik</w>
Jugend liche</w>
Ameri kas</w>
C ologne</w>
. N
C ar</w>
sh el
wei gh
rec ession</w>
Te ch</w>
Con serv
Slo wen
Funktion ieren</w>
ser b
ti ps</w>
O F</w>
dri ves</w>
demonstr ates</w>
kosten frei</w>
IB M</w>
J ord
wä sche</w>
nor men</w>
problem los</w>
mis takes</w>
releas es</w>
s unny</w>
dies mal</w>
kre di
hy gi
Govern ance</w>
nation als</w>
extern e</w>
Def ence</w>
de aths</w>
d f
men ge</w>
entsp ann
Konz ern
disp lays</w>
gewach sen</w>
F un
om a</w>
ten sion</w>
ren omm
ul ar
indic ates</w>
Lab our</w>
Ver suche</w>
pol nischen</w>
überwach t</w>
tim ely</w>
unk no
ausreich ende</w>
machin ery</w>
Y our</w>
I stan
Stra ft
i den
inter active</w>
kü ste</w>
Softwar e
di an</w>
ar dis
n ic
spo ts</w>
ge ograf
uni gen</w>
Fo ot
sag ten</w>
Fak ten</w>
over whel
ein führen</w>
zu sagen</w>
am bigu
v re</w>
R icht
speci fy</w>
The orie</w>
privileg ed</w>
9 001</w>
ut en
wär ts</w>
fel der</w>
v ine
res sourcen</w>
Hus sein</w>
einstimm ig</w>
all mäh
is en</w>
V I</w>
ac t
el li</w>
Fahr zeug</w>
S ri</w>
detail lierte</w>
en c
to wer</w>
P M</w>
dar gelegt</w>
unic ation</w>
ab gegeben</w>
197 0</w>
Tim es</w>
ap i
pres ti
rel ate</w>
pp s</w>
sp err
Spek trum</w>
Ver trieb</w>
academ ic</w>
Y outh</w>
gerech net</w>
Eff ek
d ella</w>
J acqu
justi fy</w>
Objek t</w>
author ised</w>
irl pool</w>
I A
bu l</w>
in vo
har m</w>
Z ahn
enz eit</w>
bli eb</w>
lar ge-
evalu ate</w>
ne ben
kon kur
J os
organis ierte</w>
Olymp us</w>
termin al</w>
noti fied</w>
unterschei det</w>
C lau
äum e</w>
ableh nen</w>
mis sed</w>
al location</w>
Menschen rechten</w>
sa iling</w>
His tor
Außen minister</w>
Be urteilung</w>
Energiequ ellen</w>
urop ä
ac tor</w>
Zusammen setzung</w>
verstärk te</w>
angebot enen</w>
es si
fail s</w>
Sum me</w>
Erzeu gung</w>
Berat ungen</w>
Ev ent</w>
Kub a</w>
9 ,
eu s</w>
defin ing</w>
plan e</w>
K ey
tau chen</w>
ein geladen</w>
st on</w>
mu g
oh nt</w>
public ations</w>
Refer endum</w>
geb ro
S av
arbei ter</w>
prot est</w>
eig nen</w>
L AN
nehm ern</w>
Schwar z
Belast ung</w>
d ün
pain ting</w>
schwier iger</w>
plat ten</w>
Ferienwoh nungen</w>
im per
app en</w>
Ex port</w>
Änder ungs
organis ierten</w>
rel oc
r ent
aus drück
Ost europa</w>
ex quis
L en
d un
effizi enten</w>
geb unden</w>
kun den
terror ists</w>
bus y</w>
geplan ten</w>
g reg
C lar
An kün
For mul
meas uring</w>
pas sieren</w>
G PS</w>
dopp elt</w>
pap ers</w>
conserv ation</w>
Schnitt stelle</w>
replac ement</w>
Ver sorgungs
P V
F ans</w>
demokrati sch</w>
äl tere</w>
Erd be
emp fiehlt</w>
Gro wth</w>
a por
rati o</w>
du al</w>
G oth
far ms</w>
ci vil
E lev
trop ical</w>
Franc isco</w>
u e
agre es</w>
Install ations
b ahnen</w>
in akzeptabel</w>
str eng</w>
iPo d</w>
air line</w>
human ity</w>
Beam ten</w>
ungs -
la di
Pri ze</w>
Fl ori
Profession al</w>
acquis ition</w>
al ar
vo ters</w>
dru cken</w>
cre ature</w>
l assungen</w>
Lo gik</w>
ech ter</w>
su chte</w>
mo ves</w>
gener ous</w>
B ah
contrac tual</w>
unanim ously</w>
Gewin ne</w>
Spann ungen</w>
israel ischen</w>
Tari fa</w>
Phy si
B is
ter ungen</w>
gen ous</w>
S eri
Produk tion
gel ingen</w>
land schaft</w>
Them en
zu gute</w>
ig ten</w>
emis sion</w>
angebo te</w>
ag anda</w>
Frem d
consul t</w>
reve aled</w>
beschle un
wi es</w>
war s</w>
plac ing</w>
reg imes</w>
er freul
beschle unigen</w>
M .</w>
tra -
applic ant</w>
schrei bt</w>
EG -
sp lit</w>
ger icht
Str asse</w>
system atic</w>
S CH
transi t</w>
besch reibt</w>
Verlän gerung</w>
not ably</w>
bal ances</w>
after wards</w>
unter wegs</w>
j ü
I .</w>
S S</w>
get ö
typ ische</w>
pas sende</w>
Mini bar</w>
co al</w>
kamp f</w>
Schutz es</w>
è s</w>
v als</w>
mon o
Su n</w>
b aut</w>
Aus gangs
Köl n</w>
lich -
occ urs</w>
egel ung</w>
Fuß ball
An zeige</w>
Prä sentation</w>
protec tion
M D
staat licher</w>
dau ern</w>
isti scher</w>
Willi am</w>
Marok ko</w>
withdraw al</w>
E .
Vor gän
interven e</w>
beeinflus st</w>
L ü
Besch werden</w>
initi ated</w>
pro xim
po ker</w>
phy s
Erwä gung</w>
verli ehen</w>
tonn es</w>
li est</w>
viel sei
liz iert</w>
Mon ti</w>
vereinbar ten</w>
proc urement</w>
f itted</w>
Steuer zahler</w>
ge be</w>
geb au
coordin ate</w>
re alize</w>
congratul ations</w>
unkno wn</w>
м </w>
- in</w>
k new</w>
ärm sten</w>
slow ly</w>
G öt
ch at</w>
du p
J ean</w>
Ro om
ob gleich</w>
sen ior</w>
agent ur</w>
h o</w>
at on</w>
l &apos;
An bindung</w>
controll ing</w>
p unkten</w>
Be wohner</w>
im posing</w>
k ä
S po
k it</w>
fu hr
Kar l</w>
beru fen</w>
sü d
ir ische</w>
lei det</w>
W esen</w>
1, 5</w>
San ter</w>
Rahmen bedingungen</w>
quali fications</w>
Einsch ränkungen</w>
newsp aper</w>
zulässi g</w>
gest ütz
un usual</w>
gewinn t</w>
gebrau cht</w>
contribut ing</w>
auf er
li fer
hand els</w>
z ones</w>
verstän dnis</w>
N RO</w>
In dex</w>
Il lu
Ergän zung</w>
state- of-the-
B ahn</w>
bir d</w>
Syri en</w>
ali ke</w>
differ enti
cor por
E X</w>
mon opo
sp are</w>
ques tion
ear ning</w>
bi egen</w>
inves tiert</w>
Adres sen</w>
bab y</w>
Israel is</w>
Aufenthal ts
arbitr ary</w>
eg a</w>
Plen ar
Verletz ungen</w>
s now
re e</w>
F ok
Kre u
Büh ne</w>
E in</w>
inter medi
prec au
F OR
weit aus</w>
photograph s</w>
St al
ch eck-
Bet rug</w>
lich te</w>
T A</w>
zwei f
re act</w>
vor gehen</w>
Lei ter</w>
un stable</w>
AK P-
besch ließen</w>
Pf lichten</w>
r ale</w>
au ßen
Fest stellung</w>
horizon tal</w>
k unden</w>
lei tungen</w>
K ul
tä r</w>
Bet rach
ein treten</w>
it ably</w>
Hei l
m igr
Tr end</w>
uni ons</w>
exc eed
Arbeits gruppe</w>
struc tured</w>
G las</w>
[...]
